{
  "version": "1.0",
  "truncation": null,
  "padding": null,
  "added_tokens": [
    {
      "id": 0,
      "content": "<pad>",
      "single_word": false,
      "lstrip": false,
      "rstrip": false,
      "normalized": false,
      "special": true
    },
    {
      "id": 1,
      "content": "<bos>",
      "single_word": false,
      "lstrip": false,
      "rstrip": false,
      "normalized": false,
      "special": true
    },
    {
      "id": 2,
      "content": "<eos>",
      "single_word": false,
      "lstrip": false,
      "rstrip": false,
      "normalized": false,
      "special": true
    },
    {
      "id": 3,
      "content": "<unk>",
      "single_word": false,
      "lstrip": false,
      "rstrip": false,
      "normalized": false,
      "special": true
    }
  ],
  "normalizer": null,
  "pre_tokenizer": {
    "type": "Whitespace"
  },
  "post_processor": {
    "type": "TemplateProcessing",
    "single": [
      {
        "SpecialToken": {
          "id": "<bos>",
          "type_id": 0
        }
      },
      {
        "Sequence": {
          "id": "A",
          "type_id": 0
        }
      },
      {
        "SpecialToken": {
          "id": "<eos>",
          "type_id": 0
        }
      }
    ],
    "pair": [
      {
        "Sequence": {
          "id": "A",
          "type_id": 0
        }
      },
      {
        "Sequence": {
          "id": "B",
          "type_id": 1
        }
      }
    ],
    "special_tokens": {
      "<bos>": {
        "id": "<bos>",
        "ids": [
          1
        ],
        "tokens": [
          "<bos>"
        ]
      },
      "<eos>": {
        "id": "<eos>",
        "ids": [
          2
        ],
        "tokens": [
          "<eos>"
        ]
      }
    }
  },
  "decoder": null,
  "model": {
    "type": "BPE",
    "dropout": null,
    "unk_token": "<unk>",
    "continuing_subword_prefix": null,
    "end_of_word_suffix": null,
    "fuse_unk": false,
    "byte_fallback": false,
    "ignore_merges": false,
    "vocab": {
      "<pad>": 0,
      "<bos>": 1,
      "<eos>": 2,
      "<unk>": 3,
      "!": 4,
      "#": 5,
      "%": 6,
      "&": 7,
      "'": 8,
      "(": 9,
      ")": 10,
      ",": 11,
      "-": 12,
      ".": 13,
      "/": 14,
      "0": 15,
      "1": 16,
      "2": 17,
      "3": 18,
      "4": 19,
      "5": 20,
      "6": 21,
      "7": 22,
      "8": 23,
      "9": 24,
      ":": 25,
      ";": 26,
      "?": 27,
      "@": 28,
      "_": 29,
      "a": 30,
      "b": 31,
      "c": 32,
      "d": 33,
      "e": 34,
      "f": 35,
      "g": 36,
      "h": 37,
      "i": 38,
      "j": 39,
      "k": 40,
      "l": 41,
      "m": 42,
      "n": 43,
      "o": 44,
      "p": 45,
      "q": 46,
      "r": 47,
      "s": 48,
      "t": 49,
      "u": 50,
      "v": 51,
      "w": 52,
      "x": 53,
      "y": 54,
      "z": 55,
      "ß": 56,
      "à": 57,
      "ä": 58,
      "è": 59,
      "é": 60,
      "ñ": 61,
      "ö": 62,
      "ü": 63,
      "–": 64,
      "‘": 65,
      "’": 66,
      "“": 67,
      "”": 68,
      "„": 69,
      "in": 70,
      "en": 71,
      "ein": 72,
      "er": 73,
      "ch": 74,
      "eine": 75,
      "au": 76,
      "an": 77,
      "un": 78,
      "ei": 79,
      "st": 80,
      "sch": 81,
      "einem": 82,
      "ge": 83,
      "it": 84,
      "ie": 85,
      "und": 86,
      "auf": 87,
      "ar": 88,
      "mit": 89,
      "der": 90,
      "man": 91,
      "mann": 92,
      "einer": 93,
      "on": 94,
      "rau": 95,
      "hr": 96,
      "de": 97,
      "lt": 98,
      "wei": 99,
      "sp": 100,
      "te": 101,
      "as": 102,
      "or": 103,
      "ll": 104,
      "frau": 105,
      "ten": 106,
      "gr": 107,
      "kl": 108,
      "ck": 109,
      "ter": 110,
      "gen": 111,
      "ich": 112,
      "ra": 113,
      "einen": 114,
      "mä": 115,
      "die": 116,
      "im": 117,
      "zu": 118,
      "zwei": 119,
      "eh": 120,
      "den": 121,
      "spie": 122,
      "ro": 123,
      "bl": 124,
      "be": 125,
      "men": 126,
      "ber": 127,
      "ben": 128,
      "gt": 129,
      "jun": 130,
      "am": 131,
      "bei": 132,
      "ba": 133,
      "ne": 134,
      "chen": 135,
      "he": 136,
      "and": 137,
      "rei": 138,
      "itz": 139,
      "steh": 140,
      "vor": 141,
      "le": 142,
      "ers": 143,
      "sitz": 144,
      "schw": 145,
      "sich": 146,
      "ier": 147,
      "el": 148,
      "ner": 149,
      "ft": 150,
      "ßen": 151,
      "von": 152,
      "re": 153,
      "nen": 154,
      "spiel": 155,
      "ha": 156,
      "ße": 157,
      "dem": 158,
      "junge": 159,
      "ur": 160,
      "ähr": 161,
      "kin": 162,
      "schen": 163,
      "fa": 164,
      "ach": 165,
      "ung": 166,
      "dchen": 167,
      "ger": 168,
      "mädchen": 169,
      "pp": 170,
      "hund": 171,
      "ho": 172,
      "hä": 173,
      "um": 174,
      "se": 175,
      "geh": 176,
      "sen": 177,
      "män": 178,
      "schwar": 179,
      "erson": 180,
      "person": 181,
      "lä": 182,
      "schwarz": 183,
      "tr": 184,
      "la": 185,
      "stra": 186,
      "eines": 187,
      "blau": 188,
      "ball": 189,
      "männer": 190,
      "ti": 191,
      "et": 192,
      "steht": 193,
      "klei": 194,
      "ir": 195,
      "aus": 196,
      "ppe": 197,
      "fahr": 198,
      "was": 199,
      "ot": 200,
      "pf": 201,
      "bo": 202,
      "hin": 203,
      "es": 204,
      "sitzt": 205,
      "über": 206,
      "ander": 207,
      "gel": 208,
      "ut": 209,
      "end": 210,
      "ver": 211,
      "straße": 212,
      "spr": 213,
      "gru": 214,
      "gruppe": 215,
      "hält": 216,
      "hem": 217,
      "we": 218,
      "währ": 219,
      "während": 220,
      "unter": 221,
      "ser": 222,
      "me": 223,
      "menschen": 224,
      "das": 225,
      "spielt": 226,
      "ihr": 227,
      "ist": 228,
      "lan": 229,
      "ik": 230,
      "hemd": 231,
      "schau": 232,
      "ko": 233,
      "rad": 234,
      "cke": 235,
      "tet": 236,
      "fü": 237,
      "personen": 238,
      "ze": 239,
      "il": 240,
      "lle": 241,
      "al": 242,
      "ent": 243,
      "drei": 244,
      "br": 245,
      "acht": 246,
      "blauen": 247,
      "kleid": 248,
      "kind": 249,
      "uft": 250,
      "wasser": 251,
      "stehen": 252,
      "weißen": 253,
      "kinder": 254,
      "gro": 255,
      "neben": 256,
      "ren": 257,
      "ingt": 258,
      "brau": 259,
      "em": 260,
      "eil": 261,
      "trä": 262,
      "far": 263,
      "urch": 264,
      "sitzen": 265,
      "hinter": 266,
      "durch": 267,
      "frauen": 268,
      "arbei": 269,
      "roten": 270,
      "ka": 271,
      "leu": 272,
      "bä": 273,
      "fen": 274,
      "spielen": 275,
      "fel": 276,
      "her": 277,
      "grü": 278,
      "lter": 279,
      "geht": 280,
      "hand": 281,
      "lie": 282,
      "sta": 283,
      "farben": 284,
      "fähr": 285,
      "fährt": 286,
      "sa": 287,
      "tisch": 288,
      "is": 289,
      "trägt": 290,
      "ja": 291,
      "str": 292,
      "fe": 293,
      "teil": 294,
      "iert": 295,
      "ol": 296,
      "ober": 297,
      "sie": 298,
      "ma": 299,
      "lang": 300,
      "lich": 301,
      "cken": 302,
      "ark": 303,
      "sh": 304,
      "kleines": 305,
      "macht": 306,
      "to": 307,
      "imm": 308,
      "bäu": 309,
      "hn": 310,
      "kleidung": 311,
      "zei": 312,
      "springt": 313,
      "ta": 314,
      "ange": 315,
      "bü": 316,
      "schwarzen": 317,
      "entlang": 318,
      "kleiner": 319,
      "ckt": 320,
      "isch": 321,
      "tz": 322,
      "da": 323,
      "us": 324,
      "des": 325,
      "weg": 326,
      "fer": 327,
      "lten": 328,
      "gehen": 329,
      "pa": 330,
      "spieler": 331,
      "che": 332,
      "cht": 333,
      "tra": 334,
      "hrer": 335,
      "wa": 336,
      "haar": 337,
      "leute": 338,
      "weiß": 339,
      "igen": 340,
      "bau": 341,
      "mehrer": 342,
      "fu": 343,
      "frei": 344,
      "ug": 345,
      "ind": 346,
      "je": 347,
      "fuß": 348,
      "älter": 349,
      "wir": 350,
      "nt": 351,
      "kleide": 352,
      "oberteil": 353,
      "fahrrad": 354,
      "schne": 355,
      "kam": 356,
      "gebäu": 357,
      "stü": 358,
      "zen": 359,
      "ste": 360,
      "uh": 361,
      "bri": 362,
      "etwas": 363,
      "mehrere": 364,
      "seinem": 365,
      "ige": 366,
      "irt": 367,
      "großen": 368,
      "pu": 369,
      "shirt": 370,
      "grünen": 371,
      "jacke": 372,
      "luft": 373,
      "ht": 374,
      "po": 375,
      "grund": 376,
      "vo": 377,
      "ieren": 378,
      "jungen": 379,
      "fl": 380,
      "vers": 381,
      "schaut": 382,
      "brille": 383,
      "schnee": 384,
      "ster": 385,
      "gekleide": 386,
      "ort": 387,
      "oto": 388,
      "zug": 389,
      "son": 390,
      "sam": 391,
      "hoch": 392,
      "boar": 393,
      "strand": 394,
      "bas": 395,
      "gesch": 396,
      "nach": 397,
      "foto": 398,
      "läuft": 399,
      "seh": 400,
      "nä": 401,
      "tel": 402,
      "aufen": 403,
      "ink": 404,
      "ild": 405,
      "farbenen": 406,
      "icht": 407,
      "hat": 408,
      "eln": 409,
      "ab": 410,
      "sind": 411,
      "hut": 412,
      "park": 413,
      "für": 414,
      "menge": 415,
      "ig": 416,
      "hintergrund": 417,
      "sehen": 418,
      "wer": 419,
      "hän": 420,
      "kopf": 421,
      "weiße": 422,
      "freien": 423,
      "ia": 424,
      "bli": 425,
      "ke": 426,
      "bt": 427,
      "halten": 428,
      "af": 429,
      "gebäude": 430,
      "pla": 431,
      "det": 432,
      "llen": 433,
      "anderen": 434,
      "fahrer": 435,
      "ischen": 436,
      "rü": 437,
      "än": 438,
      "junger": 439,
      "vier": 440,
      "feld": 441,
      "gelben": 442,
      "ör": 443,
      "vorbei": 444,
      "zeug": 445,
      "kü": 446,
      "war": 447,
      "ank": 448,
      "hü": 449,
      "gras": 450,
      "wie": 451,
      "na": 452,
      "asia": 453,
      "berei": 454,
      "orange": 455,
      "essen": 456,
      "era": 457,
      "mü": 458,
      "fon": 459,
      "gl": 460,
      "stei": 461,
      "gegen": 462,
      "git": 463,
      "tem": 464,
      "andere": 465,
      "board": 466,
      "sche": 467,
      "boden": 468,
      "stad": 469,
      "schn": 470,
      "ih": 471,
      "ska": 472,
      "schwarzer": 473,
      "kamera": 474,
      "gitar": 475,
      "kleine": 476,
      "hne": 477,
      "tt": 478,
      "hunde": 479,
      "fin": 480,
      "wand": 481,
      "hel": 482,
      "nähe": 483,
      "schie": 484,
      "wird": 485,
      "beim": 486,
      "fußball": 487,
      "gest": 488,
      "ler": 489,
      "blon": 490,
      "kleinen": 491,
      "paar": 492,
      "weißer": 493,
      "uer": 494,
      "einander": 495,
      "menschenmenge": 496,
      "wagen": 497,
      "auto": 498,
      "stadt": 499,
      "rosa": 500,
      "utz": 501,
      "zie": 502,
      "schwimm": 503,
      "art": 504,
      "fahren": 505,
      "vie": 506,
      "ans": 507,
      "ller": 508,
      "co": 509,
      "grau": 510,
      "otor": 511,
      "blu": 512,
      "anz": 513,
      "gitarre": 514,
      "ing": 515,
      "rot": 516,
      "skate": 517,
      "uch": 518,
      "lo": 519,
      "liegt": 520,
      "pfer": 521,
      "arbeiter": 522,
      "sonnen": 523,
      "mer": 524,
      "dun": 525,
      "läche": 526,
      "rennen": 527,
      "führ": 528,
      "zusam": 529,
      "rennt": 530,
      "straßen": 531,
      "ihre": 532,
      "sieht": 533,
      "pos": 534,
      "so": 535,
      "ucht": 536,
      "bahn": 537,
      "len": 538,
      "etter": 539,
      "bank": 540,
      "schauen": 541,
      "by": 542,
      "dern": 543,
      "kar": 544,
      "scha": 545,
      "schlä": 546,
      "ihren": 547,
      "sand": 548,
      "große": 549,
      "zusammen": 550,
      "anzug": 551,
      "motor": 552,
      "herum": 553,
      "sei": 554,
      "steig": 555,
      "jeans": 556,
      "ff": 557,
      "braunen": 558,
      "brauner": 559,
      "kel": 560,
      "ru": 561,
      "äft": 562,
      "tre": 563,
      "band": 564,
      "kauf": 565,
      "ingen": 566,
      "sk": 567,
      "lz": 568,
      "kletter": 569,
      "älterer": 570,
      "for": 571,
      "sein": 572,
      "deck": 573,
      "tes": 574,
      "platz": 575,
      "fr": 576,
      "bühne": 577,
      "drau": 578,
      "wach": 579,
      "mau": 580,
      "tze": 581,
      "ern": 582,
      "hose": 583,
      "draußen": 584,
      "laufen": 585,
      "gew": 586,
      "kur": 587,
      "schla": 588,
      "base": 589,
      "mo": 590,
      "schü": 591,
      "befin": 592,
      "ang": 593,
      "sicht": 594,
      "gehweg": 595,
      "baum": 596,
      "geschäft": 597,
      "skateboard": 598,
      "bild": 599,
      "seine": 600,
      "sten": 601,
      "zeit": 602,
      "chtet": 603,
      "blickt": 604,
      "baby": 605,
      "wachsen": 606,
      "mik": 607,
      "cheln": 608,
      "hinunter": 609,
      "mikro": 610,
      "schir": 611,
      "asiatisch": 612,
      "boot": 613,
      "arbeitet": 614,
      "sport": 615,
      "lächeln": 616,
      "dabei": 617,
      "holz": 618,
      "seinen": 619,
      "per": 620,
      "schl": 621,
      "als": 622,
      "mus": 623,
      "sto": 624,
      "chten": 625,
      "tragen": 626,
      "all": 627,
      "helm": 628,
      "dar": 629,
      "är": 630,
      "kt": 631,
      "angen": 632,
      "fest": 633,
      "tag": 634,
      "bür": 635,
      "pe": 636,
      "schu": 637,
      "ket": 638,
      "versucht": 639,
      "län": 640,
      "arbeiten": 641,
      "zer": 642,
      "stein": 643,
      "ame": 644,
      "ick": 645,
      "bedeck": 646,
      "hen": 647,
      "nis": 648,
      "ran": 649,
      "ufer": 650,
      "bar": 651,
      "rä": 652,
      "zeigt": 653,
      "wal": 654,
      "stau": 655,
      "schuh": 656,
      "geb": 657,
      "hosen": 658,
      "lte": 659,
      "baseball": 660,
      "dame": 661,
      "reif": 662,
      "machen": 663,
      "gestreif": 664,
      "mark": 665,
      "hell": 666,
      "schnei": 667,
      "pol": 668,
      "kun": 669,
      "lächelt": 670,
      "llo": 671,
      "lichen": 672,
      "orangefarbenen": 673,
      "stand": 674,
      "kom": 675,
      "bürger": 676,
      "tur": 677,
      "ihrem": 678,
      "kon": 679,
      "stuh": 680,
      "ikot": 681,
      "stuhl": 682,
      "ische": 683,
      "graf": 684,
      "ss": 685,
      "ältere": 686,
      "motorrad": 687,
      "iger": 688,
      "gesicht": 689,
      "ihm": 690,
      "fit": 691,
      "assen": 692,
      "hal": 693,
      "junges": 694,
      "bürgersteig": 695,
      "wo": 696,
      "erwachsen": 697,
      "fla": 698,
      "tte": 699,
      "trikot": 700,
      "liest": 701,
      "kunst": 702,
      "spricht": 703,
      "pro": 704,
      "anderer": 705,
      "ikan": 706,
      "markt": 707,
      "at": 708,
      "arm": 709,
      "führt": 710,
      "iz": 711,
      "unterhalten": 712,
      "schirm": 713,
      "kä": 714,
      "schaft": 715,
      "wald": 716,
      "sur": 717,
      "mantel": 718,
      "ine": 719,
      "lefon": 720,
      "betra": 721,
      "feuer": 722,
      "dr": 723,
      "ßer": 724,
      "pferd": 725,
      "fo": 726,
      "haaren": 727,
      "tennis": 728,
      "stru": 729,
      "weißem": 730,
      "gelän": 731,
      "musik": 732,
      "meer": 733,
      "schild": 734,
      "zum": 735,
      "viele": 736,
      "ßt": 737,
      "raum": 738,
      "basket": 739,
      "grauen": 740,
      "kor": 741,
      "eis": 742,
      "restau": 743,
      "sonnenbrille": 744,
      "restauran": 745,
      "no": 746,
      "ts": 747,
      "tion": 748,
      "kör": 749,
      "beo": 750,
      "blauem": 751,
      "spielzeug": 752,
      "stück": 753,
      "gekleidete": 754,
      "orts": 755,
      "beoba": 756,
      "seiner": 757,
      "itt": 758,
      "amm": 759,
      "ken": 760,
      "ob": 761,
      "spa": 762,
      "berg": 763,
      "basketball": 764,
      "zuschau": 765,
      "felsen": 766,
      "ruck": 767,
      "fenster": 768,
      "ischer": 769,
      "mütze": 770,
      "di": 771,
      "kostü": 772,
      "grüne": 773,
      "nf": 774,
      "tanz": 775,
      "unten": 776,
      "shorts": 777,
      "glei": 778,
      "trink": 779,
      "par": 780,
      "singt": 781,
      "uss": 782,
      "klettert": 783,
      "foot": 784,
      "stu": 785,
      "ku": 786,
      "ür": 787,
      "ihnen": 788,
      "asse": 789,
      "hl": 790,
      "sä": 791,
      "blumen": 792,
      "mikrofon": 793,
      "ade": 794,
      "li": 795,
      "uni": 796,
      "dunkel": 797,
      "bade": 798,
      "pfen": 799,
      "fünf": 800,
      "fre": 801,
      "llt": 802,
      "tro": 803,
      "posiert": 804,
      "darauf": 805,
      "restaurant": 806,
      "football": 807,
      "pullo": 808,
      "bus": 809,
      "hei": 810,
      "kn": 811,
      "asen": 812,
      "regen": 813,
      "öff": 814,
      "einige": 815,
      "jeman": 816,
      "pullover": 817,
      "schrei": 818,
      "blauer": 819,
      "wirft": 820,
      "befindet": 821,
      "tischen": 822,
      "gelbe": 823,
      "hügel": 824,
      "stre": 825,
      "telefon": 826,
      "ins": 827,
      "klein": 828,
      "becken": 829,
      "braun": 830,
      "haus": 831,
      "cher": 832,
      "denen": 833,
      "ppen": 834,
      "schutz": 835,
      "bereitet": 836,
      "körper": 837,
      "gang": 838,
      "scht": 839,
      "häu": 840,
      "springen": 841,
      "schm": 842,
      "sehr": 843,
      "schwarzem": 844,
      "kan": 845,
      "isst": 846,
      "gekleideter": 847,
      "zw": 848,
      "unifor": 849,
      "bi": 850,
      "buch": 851,
      "do": 852,
      "tan": 853,
      "tiger": 854,
      "brü": 855,
      "kampf": 856,
      "schuhen": 857,
      "met": 858,
      "langen": 859,
      "ffen": 860,
      "leh": 861,
      "vi": 862,
      "aun": 863,
      "rotem": 864,
      "wiese": 865,
      "seite": 866,
      "strumen": 867,
      "ki": 868,
      "oder": 869,
      "rut": 870,
      "roter": 871,
      "schwarze": 872,
      "alter": 873,
      "bre": 874,
      "kindern": 875,
      "braune": 876,
      "iet": 877,
      "sack": 878,
      "mitten": 879,
      "malt": 880,
      "männern": 881,
      "radfahrer": 882,
      "tanzen": 883,
      "tasche": 884,
      "bluse": 885,
      "gestreiften": 886,
      "hon": 887,
      "richt": 888,
      "sst": 889,
      "wartet": 890,
      "hof": 891,
      "stock": 892,
      "ät": 893,
      "unden": 894,
      "leb": 895,
      "verkauf": 896,
      "haarige": 897,
      "licher": 898,
      "ion": 899,
      "lei": 900,
      "ton": 901,
      "werden": 902,
      "quer": 903,
      "ungen": 904,
      "liche": 905,
      "innen": 906,
      "voller": 907,
      "posieren": 908,
      "land": 909,
      "pier": 910,
      "maul": 911,
      "nacht": 912,
      "oben": 913,
      "zimm": 914,
      "schr": 915,
      "geben": 916,
      "ckey": 917,
      "liegen": 918,
      "zaun": 919,
      "beleb": 920,
      "amer": 921,
      "überquer": 922,
      "handy": 923,
      "änger": 924,
      "ien": 925,
      "seil": 926,
      "del": 927,
      "ett": 928,
      "sprung": 929,
      "oberkörper": 930,
      "warten": 931,
      "dunkl": 932,
      "zimmer": 933,
      "kö": 934,
      "zieht": 935,
      "mauer": 936,
      "tten": 937,
      "reitet": 938,
      "isten": 939,
      "fluss": 940,
      "schlag": 941,
      "hör": 942,
      "melt": 943,
      "metall": 944,
      "mt": 945,
      "op": 946,
      "ierten": 947,
      "gol": 948,
      "instrumen": 949,
      "gend": 950,
      "werk": 951,
      "betrachtet": 952,
      "spaz": 953,
      "zwischen": 954,
      "tor": 955,
      "leuten": 956,
      "genie": 957,
      "blonde": 958,
      "ski": 959,
      "mar": 960,
      "renn": 961,
      "masch": 962,
      "bäumen": 963,
      "gem": 964,
      "ass": 965,
      "bauarbeiter": 966,
      "amerikan": 967,
      "ift": 968,
      "fels": 969,
      "schläft": 970,
      "ue": 971,
      "weste": 972,
      "utzt": 973,
      "hö": 974,
      "sno": 975,
      "ltung": 976,
      "tritt": 977,
      "lila": 978,
      "fangen": 979,
      "pink": 980,
      "inter": 981,
      "ena": 982,
      "haben": 983,
      "küche": 984,
      "lehnt": 985,
      "snow": 986,
      "dach": 987,
      "ju": 988,
      "out": 989,
      "schö": 990,
      "immt": 991,
      "händen": 992,
      "bu": 993,
      "rich": 994,
      "rücken": 995,
      "treppe": 996,
      "bedeckten": 997,
      "stä": 998,
      "miteinander": 999,
      "herunter": 1000,
      "beobachtet": 1001,
      "kleinkind": 1002,
      "ill": 1003,
      "rie": 1004,
      "männ": 1005,
      "laden": 1006,
      "stelle": 1007,
      "gewä": 1008,
      "rucksack": 1009,
      "ssen": 1010,
      "ihrer": 1011,
      "tanzt": 1012,
      "richtung": 1013,
      "jo": 1014,
      "diese": 1015,
      "ellt": 1016,
      "ette": 1017,
      "fam": 1018,
      "hlen": 1019,
      "uchen": 1020,
      "rock": 1021,
      "verschie": 1022,
      "kop": 1023,
      "alt": 1024,
      "reifen": 1025,
      "flug": 1026,
      "schiebt": 1027,
      "schwimmbecken": 1028,
      "poliz": 1029,
      "famil": 1030,
      "bart": 1031,
      "schein": 1032,
      "ak": 1033,
      "beton": 1034,
      "hockey": 1035,
      "see": 1036,
      "wehr": 1037,
      "vom": 1038,
      "fris": 1039,
      "befinden": 1040,
      "sser": 1041,
      "einkauf": 1042,
      "fotograf": 1043,
      "orangefarben": 1044,
      "schaukel": 1045,
      "rück": 1046,
      "gar": 1047,
      "tau": 1048,
      "welle": 1049,
      "käm": 1050,
      "zuschauer": 1051,
      "brücke": 1052,
      "aben": 1053,
      "papier": 1054,
      "maschine": 1055,
      "kra": 1056,
      "wä": 1057,
      "geträ": 1058,
      "grün": 1059,
      "geträn": 1060,
      "nimmt": 1061,
      "tei": 1062,
      "tür": 1063,
      "team": 1064,
      "umgeben": 1065,
      "glas": 1066,
      "kurzen": 1067,
      "asiatische": 1068,
      "brett": 1069,
      "zur": 1070,
      "legt": 1071,
      "hängt": 1072,
      "fä": 1073,
      "hau": 1074,
      "hil": 1075,
      "mpe": 1076,
      "ansta": 1077,
      "armen": 1078,
      "gelb": 1079,
      "boarder": 1080,
      "graffit": 1081,
      "kostüm": 1082,
      "kaufen": 1083,
      "schneidet": 1084,
      "flag": 1085,
      "gi": 1086,
      "zo": 1087,
      "mittel": 1088,
      "ammelt": 1089,
      "ballon": 1090,
      "utter": 1091,
      "großer": 1092,
      "gebäudes": 1093,
      "com": 1094,
      "verkauft": 1095,
      "familie": 1096,
      "gu": 1097,
      "wen": 1098,
      "tern": 1099,
      "bal": 1100,
      "gerade": 1101,
      "läufer": 1102,
      "top": 1103,
      "fern": 1104,
      "geländer": 1105,
      "offen": 1106,
      "tig": 1107,
      "boy": 1108,
      "veransta": 1109,
      "versammelt": 1110,
      "rosafarbenen": 1111,
      "cow": 1112,
      "halb": 1113,
      "trinkt": 1114,
      "jemand": 1115,
      "uniform": 1116,
      "bunten": 1117,
      "ds": 1118,
      "fläche": 1119,
      "ker": 1120,
      "net": 1121,
      "setz": 1122,
      "ffe": 1123,
      "neh": 1124,
      "fall": 1125,
      "aussehen": 1126,
      "volle": 1127,
      "kün": 1128,
      "erwachsene": 1129,
      "ihn": 1130,
      "ole": 1131,
      "rote": 1132,
      "pool": 1133,
      "autos": 1134,
      "veranstaltung": 1135,
      "yp": 1136,
      "deo": 1137,
      "span": 1138,
      "fahrzeug": 1139,
      "korb": 1140,
      "spazieren": 1141,
      "outfit": 1142,
      "ve": 1143,
      "unnen": 1144,
      "reihe": 1145,
      "ungs": 1146,
      "brunnen": 1147,
      "telefoniert": 1148,
      "rand": 1149,
      "rasen": 1150,
      "wett": 1151,
      "teena": 1152,
      "hebt": 1153,
      "fußballspieler": 1154,
      "belebten": 1155,
      "kei": 1156,
      "chs": 1157,
      "chte": 1158,
      "stung": 1159,
      "itten": 1160,
      "mitte": 1161,
      "bee": 1162,
      "ummer": 1163,
      "hemden": 1164,
      "westen": 1165,
      "sonn": 1166,
      "weißes": 1167,
      "blicken": 1168,
      "nack": 1169,
      "schwimmt": 1170,
      "schlägt": 1171,
      "rädern": 1172,
      "compu": 1173,
      "cowboy": 1174,
      "teenager": 1175,
      "kr": 1176,
      "lin": 1177,
      "mutter": 1178,
      "sol": 1179,
      "ün": 1180,
      "alen": 1181,
      "kehr": 1182,
      "gewässer": 1183,
      "künst": 1184,
      "ling": 1185,
      "mu": 1186,
      "typ": 1187,
      "stik": 1188,
      "lachen": 1189,
      "immel": 1190,
      "kopfbedeck": 1191,
      "frisbee": 1192,
      "fliegt": 1193,
      "himmel": 1194,
      "decke": 1195,
      "bel": 1196,
      "hohen": 1197,
      "freiem": 1198,
      "schneebedeckten": 1199,
      "gekleidet": 1200,
      "bereiten": 1201,
      "vielen": 1202,
      "kommt": 1203,
      "volley": 1204,
      "einigen": 1205,
      "orangen": 1206,
      "ikum": 1207,
      "blick": 1208,
      "rüstung": 1209,
      "grünem": 1210,
      "blikum": 1211,
      "lässt": 1212,
      "hinauf": 1213,
      "publikum": 1214,
      "hände": 1215,
      "stufen": 1216,
      "sonnigen": 1217,
      "pfa": 1218,
      "ügen": 1219,
      "mannschaft": 1220,
      "grei": 1221,
      "befest": 1222,
      "leben": 1223,
      "schrift": 1224,
      "zogen": 1225,
      "fol": 1226,
      "mel": 1227,
      "roller": 1228,
      "laster": 1229,
      "ausrüstung": 1230,
      "stat": 1231,
      "igar": 1232,
      "kämpfen": 1233,
      "künstler": 1234,
      "ecke": 1235,
      "zigar": 1236,
      "repar": 1237,
      "trick": 1238,
      "voll": 1239,
      "nah": 1240,
      "dunklen": 1241,
      "volleyball": 1242,
      "alte": 1243,
      "du": 1244,
      "qu": 1245,
      "wander": 1246,
      "under": 1247,
      "zuschauen": 1248,
      "beu": 1249,
      "blaue": 1250,
      "bereit": 1251,
      "treten": 1252,
      "zeitung": 1253,
      "öffent": 1254,
      "igt": 1255,
      "ruh": 1256,
      "augen": 1257,
      "stange": 1258,
      "spielplatz": 1259,
      "farb": 1260,
      "bereich": 1261,
      "asiatischer": 1262,
      "freund": 1263,
      "graffiti": 1264,
      "kopfbedeckung": 1265,
      "bier": 1266,
      "fisch": 1267,
      "gemü": 1268,
      "mitt": 1269,
      "zeu": 1270,
      "train": 1271,
      "blondes": 1272,
      "schläger": 1273,
      "städ": 1274,
      "nummer": 1275,
      "mannes": 1276,
      "zelt": 1277,
      "herr": 1278,
      "ziegel": 1279,
      "schulter": 1280,
      "überqueren": 1281,
      "computer": 1282,
      "mittler": 1283,
      "dra": 1284,
      "fei": 1285,
      "wur": 1286,
      "winter": 1287,
      "auch": 1288,
      "stühlen": 1289,
      "jugend": 1290,
      "ater": 1291,
      "eimer": 1292,
      "rampe": 1293,
      "mensch": 1294,
      "bär": 1295,
      "haariger": 1296,
      "führen": 1297,
      "kunststück": 1298,
      "viole": 1299,
      "bil": 1300,
      "bett": 1301,
      "ses": 1302,
      "davon": 1303,
      "karierten": 1304,
      "statue": 1305,
      "gner": 1306,
      "lauf": 1307,
      "mas": 1308,
      "sil": 1309,
      "tä": 1310,
      "star": 1311,
      "zusehen": 1312,
      "beg": 1313,
      "verschnei": 1314,
      "arbeit": 1315,
      "jekt": 1316,
      "schür": 1317,
      "dunkelhäu": 1318,
      "genießt": 1319,
      "verschieden": 1320,
      "lebens": 1321,
      "ce": 1322,
      "spre": 1323,
      "roll": 1324,
      "ängt": 1325,
      "feuerwehr": 1326,
      "zuschauern": 1327,
      "strecke": 1328,
      "nehmen": 1329,
      "mittleren": 1330,
      "lacht": 1331,
      "link": 1332,
      "za": 1333,
      "eren": 1334,
      "strei": 1335,
      "schauf": 1336,
      "vorder": 1337,
      "sechs": 1338,
      "gelber": 1339,
      "gibt": 1340,
      "pfad": 1341,
      "alten": 1342,
      "bik": 1343,
      "fro": 1344,
      "lk": 1345,
      "lau": 1346,
      "zä": 1347,
      "einsam": 1348,
      "benutzt": 1349,
      "back": 1350,
      "tige": 1351,
      "spritz": 1352,
      "tzen": 1353,
      "fotos": 1354,
      "gegenstand": 1355,
      "alters": 1356,
      "garten": 1357,
      "solda": 1358,
      "mund": 1359,
      "skop": 1360,
      "großes": 1361,
      "baseballspieler": 1362,
      "gleich": 1363,
      "rutsche": 1364,
      "gemüse": 1365,
      "gänger": 1366,
      "hnen": 1367,
      "part": 1368,
      "bla": 1369,
      "unterhält": 1370,
      "nahe": 1371,
      "helmen": 1372,
      "musiker": 1373,
      "obst": 1374,
      "trinken": 1375,
      "ries": 1376,
      "bis": 1377,
      "phon": 1378,
      "stellt": 1379,
      "scho": 1380,
      "grill": 1381,
      "zusieht": 1382,
      "einkaufs": 1383,
      "dre": 1384,
      "ele": 1385,
      "hang": 1386,
      "kre": 1387,
      "the": 1388,
      "außer": 1389,
      "weihn": 1390,
      "immen": 1391,
      "zuschaut": 1392,
      "pflaster": 1393,
      "nebeneinander": 1394,
      "fußgänger": 1395,
      "sonne": 1396,
      "sofa": 1397,
      "surfer": 1398,
      "scheint": 1399,
      "bor": 1400,
      "krei": 1401,
      "mal": 1402,
      "nicht": 1403,
      "stie": 1404,
      "schei": 1405,
      "deckt": 1406,
      "pflan": 1407,
      "versamm": 1408,
      "anzügen": 1409,
      "kostümen": 1410,
      "nachts": 1411,
      "köpf": 1412,
      "mmer": 1413,
      "kappe": 1414,
      "feln": 1415,
      "kniet": 1416,
      "lebensmittel": 1417,
      "ga": 1418,
      "ition": 1419,
      "rotes": 1420,
      "beleu": 1421,
      "hinten": 1422,
      "braut": 1423,
      "versuchen": 1424,
      "afr": 1425,
      "waren": 1426,
      "kommen": 1427,
      "hals": 1428,
      "dreh": 1429,
      "zigarette": 1430,
      "mö": 1431,
      "ert": 1432,
      "schal": 1433,
      "mehreren": 1434,
      "igkei": 1435,
      "schuhe": 1436,
      "beobachten": 1437,
      "bikin": 1438,
      "fängt": 1439,
      "pel": 1440,
      "stro": 1441,
      "bow": 1442,
      "ess": 1443,
      "lange": 1444,
      "farbenfro": 1445,
      "teln": 1446,
      "werfen": 1447,
      "schürze": 1448,
      "hu": 1449,
      "lö": 1450,
      "wunder": 1451,
      "zt": 1452,
      "stän": 1453,
      "gegner": 1454,
      "raucht": 1455,
      "beide": 1456,
      "geld": 1457,
      "geln": 1458,
      "achts": 1459,
      "farbener": 1460,
      "turn": 1461,
      "konzer": 1462,
      "trikots": 1463,
      "flagge": 1464,
      "öffentlichen": 1465,
      "afrikan": 1466,
      "bun": 1467,
      "beh": 1468,
      "ul": 1469,
      "wanderer": 1470,
      "stö": 1471,
      "netz": 1472,
      "ferne": 1473,
      "stell": 1474,
      "werb": 1475,
      "hüten": 1476,
      "gebiet": 1477,
      "flasche": 1478,
      "betrachten": 1479,
      "rutscht": 1480,
      "leiter": 1481,
      "verschneiten": 1482,
      "rt": 1483,
      "sel": 1484,
      "blich": 1485,
      "blasen": 1486,
      "reden": 1487,
      "gehsteig": 1488,
      "grüner": 1489,
      "afro": 1490,
      "müll": 1491,
      "klettern": 1492,
      "ssel": 1493,
      "weihnachts": 1494,
      "konzert": 1495,
      "ckl": 1496,
      "lu": 1497,
      "anten": 1498,
      "halle": 1499,
      "gerü": 1500,
      "änzer": 1501,
      "blonden": 1502,
      "gebung": 1503,
      "erwachsener": 1504,
      "folgt": 1505,
      "wein": 1506,
      "arme": 1507,
      "blas": 1508,
      "ausgest": 1509,
      "leuchten": 1510,
      "licht": 1511,
      "zeich": 1512,
      "ziehen": 1513,
      "schüler": 1514,
      "surf": 1515,
      "tennisball": 1516,
      "instrument": 1517,
      "snowboarder": 1518,
      "befestig": 1519,
      "bärtiger": 1520,
      "außerhalb": 1521,
      "ca": 1522,
      "pft": 1523,
      "vater": 1524,
      "wn": 1525,
      "weiter": 1526,
      "ment": 1527,
      "lesen": 1528,
      "kleidern": 1529,
      "verkehr": 1530,
      "untergang": 1531,
      "dass": 1532,
      "issen": 1533,
      "vogel": 1534,
      "inkt": 1535,
      "hängen": 1536,
      "kurz": 1537,
      "geschäfts": 1538,
      "basketballspieler": 1539,
      "skifahrer": 1540,
      "snowboard": 1541,
      "greift": 1542,
      "bikini": 1543,
      "pen": 1544,
      "swe": 1545,
      "sucht": 1546,
      "klassen": 1547,
      "schwimmen": 1548,
      "gerät": 1549,
      "blaues": 1550,
      "box": 1551,
      "damen": 1552,
      "dessen": 1553,
      "plastik": 1554,
      "sonnenuntergang": 1555,
      "schlagen": 1556,
      "käufer": 1557,
      "surft": 1558,
      "männliche": 1559,
      "polizist": 1560,
      "bowling": 1561,
      "gerüst": 1562,
      "ban": 1563,
      "schaf": 1564,
      "aufschrift": 1565,
      "kla": 1566,
      "zurück": 1567,
      "blät": 1568,
      "ume": 1569,
      "kapu": 1570,
      "heraus": 1571,
      "gelbem": 1572,
      "uniformen": 1573,
      "fotografiert": 1574,
      "getränk": 1575,
      "hilft": 1576,
      "ad": 1577,
      "ende": 1578,
      "beiden": 1579,
      "boo": 1580,
      "zentr": 1581,
      "atshirt": 1582,
      "kuchen": 1583,
      "schreibt": 1584,
      "kampfsport": 1585,
      "jog": 1586,
      "beugt": 1587,
      "städtischen": 1588,
      "afroamerikan": 1589,
      "sweatshirt": 1590,
      "ften": 1591,
      "iff": 1592,
      "min": 1593,
      "tü": 1594,
      "tuch": 1595,
      "chin": 1596,
      "unbefestig": 1597,
      "blo": 1598,
      "kaja": 1599,
      "haare": 1600,
      "hochzeit": 1601,
      "motorradfahrer": 1602,
      "überquert": 1603,
      "schönen": 1604,
      "polizisten": 1605,
      "sprechen": 1606,
      "kajak": 1607,
      "jün": 1608,
      "mil": 1609,
      "chter": 1610,
      "gep": 1611,
      "berge": 1612,
      "umgebung": 1613,
      "last": 1614,
      "tigen": 1615,
      "handschuhen": 1616,
      "jacken": 1617,
      "iges": 1618,
      "gegend": 1619,
      "wohn": 1620,
      "erwachsenen": 1621,
      "streckt": 1622,
      "schmutz": 1623,
      "hört": 1624,
      "flugzeug": 1625,
      "guckt": 1626,
      "nacktem": 1627,
      "versammeln": 1628,
      "jünger": 1629,
      "gs": 1630,
      "haufen": 1631,
      "leine": 1632,
      "ohr": 1633,
      "erle": 1634,
      "weiblich": 1635,
      "spiegel": 1636,
      "sicher": 1637,
      "tiv": 1638,
      "taschen": 1639,
      "blonder": 1640,
      "stoff": 1641,
      "gestreiftem": 1642,
      "silber": 1643,
      "cklich": 1644,
      "bur": 1645,
      "singen": 1646,
      "tänzer": 1647,
      "wel": 1648,
      "ücklich": 1649,
      "hrt": 1650,
      "cker": 1651,
      "leder": 1652,
      "leeren": 1653,
      "fahrt": 1654,
      "wellen": 1655,
      "zeichen": 1656,
      "pad": 1657,
      "luftballon": 1658,
      "kopfhör": 1659,
      "asiatischen": 1660,
      "finger": 1661,
      "pferde": 1662,
      "schlamm": 1663,
      "schlauch": 1664,
      "schreib": 1665,
      "setzt": 1666,
      "soldaten": 1667,
      "eben": 1668,
      "ippe": 1669,
      "lassen": 1670,
      "plan": 1671,
      "trad": 1672,
      "tank": 1673,
      "rodeo": 1674,
      "farbenem": 1675,
      "isches": 1676,
      "flü": 1677,
      "ings": 1678,
      "athon": 1679,
      "badeanzug": 1680,
      "genießen": 1681,
      "marathon": 1682,
      "itione": 1683,
      "traditione": 1684,
      "clo": 1685,
      "flie": 1686,
      "kir": 1687,
      "sau": 1688,
      "tier": 1689,
      "stamm": 1690,
      "schä": 1691,
      "bewachsen": 1692,
      "entspan": 1693,
      "jagt": 1694,
      "watte": 1695,
      "asiat": 1696,
      "seifen": 1697,
      "mikrophon": 1698,
      "parade": 1699,
      "gelbes": 1700,
      "schlagzeug": 1701,
      "gemeinsam": 1702,
      "party": 1703,
      "kreu": 1704,
      "kau": 1705,
      "ktion": 1706,
      "nick": 1707,
      "ohne": 1708,
      "ptop": 1709,
      "tun": 1710,
      "tter": 1711,
      "inmitten": 1712,
      "itär": 1713,
      "berü": 1714,
      "bad": 1715,
      "balan": 1716,
      "laptop": 1717,
      "bogen": 1718,
      "kaffe": 1719,
      "gekleideten": 1720,
      "schlitten": 1721,
      "wobei": 1722,
      "geländem": 1723,
      "maske": 1724,
      "verschiedene": 1725,
      "scheibe": 1726,
      "gei": 1727,
      "ras": 1728,
      "angel": 1729,
      "aufge": 1730,
      "belt": 1731,
      "bedi": 1732,
      "reiten": 1733,
      "schwingt": 1734,
      "recht": 1735,
      "fallen": 1736,
      "umarm": 1737,
      "arbeits": 1738,
      "liches": 1739,
      "tain": 1740,
      "wasch": 1741,
      "flei": 1742,
      "parkplatz": 1743,
      "gegenüber": 1744,
      "grauem": 1745,
      "treppen": 1746,
      "räder": 1747,
      "regenschirm": 1748,
      "schutzhelm": 1749,
      "braunem": 1750,
      "starrt": 1751,
      "lkw": 1752,
      "riesigen": 1753,
      "stiefeln": 1754,
      "pflanzen": 1755,
      "dreht": 1756,
      "militär": 1757,
      "bst": 1758,
      "go": 1759,
      "llten": 1760,
      "pass": 1761,
      "sänger": 1762,
      "ause": 1763,
      "gepflaster": 1764,
      "dert": 1765,
      "bergen": 1766,
      "schwarzes": 1767,
      "anderes": 1768,
      "verkleide": 1769,
      "kinderwagen": 1770,
      "sachen": 1771,
      "tow": 1772,
      "tour": 1773,
      "älteren": 1774,
      "gebäuden": 1775,
      "shirts": 1776,
      "sohn": 1777,
      "trom": 1778,
      "richter": 1779,
      "clown": 1780,
      "alle": 1781,
      "gie": 1782,
      "hle": 1783,
      "iv": 1784,
      "kunden": 1785,
      "over": 1786,
      "prü": 1787,
      "wü": 1788,
      "wär": 1789,
      "ym": 1790,
      "spring": 1791,
      "baustelle": 1792,
      "führung": 1793,
      "straßenrand": 1794,
      "straßenecke": 1795,
      "schatten": 1796,
      "lächelnd": 1797,
      "schul": 1798,
      "grünes": 1799,
      "pinkfarbenen": 1800,
      "wendet": 1801,
      "offenen": 1802,
      "jugendlicher": 1803,
      "tätow": 1804,
      "kreuz": 1805,
      "balanc": 1806,
      "geländemotor": 1807,
      "dan": 1808,
      "druck": 1809,
      "ffel": 1810,
      "fig": 1811,
      "ham": 1812,
      "pause": 1813,
      "tie": 1814,
      "steinen": 1815,
      "dieser": 1816,
      "hafen": 1817,
      "cheerle": 1818,
      "steigen": 1819,
      "landschaft": 1820,
      "gold": 1821,
      "hockeyspieler": 1822,
      "orangefarbener": 1823,
      "muster": 1824,
      "spritzt": 1825,
      "schoß": 1826,
      "stellung": 1827,
      "umarmt": 1828,
      "overall": 1829,
      "bein": 1830,
      "gut": 1831,
      "glie": 1832,
      "ganz": 1833,
      "lam": 1834,
      "lung": 1835,
      "pan": 1836,
      "ptur": 1837,
      "su": 1838,
      "eisen": 1839,
      "aufnah": 1840,
      "oren": 1841,
      "bekleidung": 1842,
      "ierte": 1843,
      "verkäufer": 1844,
      "koch": 1845,
      "abge": 1846,
      "grasbewachsen": 1847,
      "schlafen": 1848,
      "mobi": 1849,
      "schirmen": 1850,
      "tennisspieler": 1851,
      "krawatte": 1852,
      "dunkelhäutiger": 1853,
      "backstein": 1854,
      "kreis": 1855,
      "schreibtisch": 1856,
      "fleisch": 1857,
      "cheerlea": 1858,
      "rö": 1859,
      "trei": 1860,
      "ennen": 1861,
      "schlange": 1862,
      "gezogen": 1863,
      "mitglie": 1864,
      "spitz": 1865,
      "schwe": 1866,
      "irgend": 1867,
      "utzen": 1868,
      "verkaufen": 1869,
      "fell": 1870,
      "fahrradfahrer": 1871,
      "glücklich": 1872,
      "schnau": 1873,
      "loch": 1874,
      "sandalen": 1875,
      "hellhäu": 1876,
      "gelände": 1877,
      "repariert": 1878,
      "wurf": 1879,
      "vordergrund": 1880,
      "laub": 1881,
      "ate": 1882,
      "cro": 1883,
      "fil": 1884,
      "gla": 1885,
      "kte": 1886,
      "nas": 1887,
      "putzt": 1888,
      "uck": 1889,
      "teller": 1890,
      "lage": 1891,
      "fahrrädern": 1892,
      "iste": 1893,
      "füllten": 1894,
      "bän": 1895,
      "jahr": 1896,
      "vollen": 1897,
      "gekleidetes": 1898,
      "händ": 1899,
      "gegeneinander": 1900,
      "schieds": 1901,
      "gewor": 1902,
      "kurzer": 1903,
      "schüssel": 1904,
      "footballspieler": 1905,
      "video": 1906,
      "schöne": 1907,
      "chteten": 1908,
      "einkaufswagen": 1909,
      "chines": 1910,
      "caf": 1911,
      "fle": 1912,
      "fliegen": 1913,
      "nie": 1914,
      "einge": 1915,
      "erde": 1916,
      "schil": 1917,
      "aufger": 1918,
      "deon": 1919,
      "ori": 1920,
      "klippe": 1921,
      "blü": 1922,
      "bedeckt": 1923,
      "angezogen": 1924,
      "stellen": 1925,
      "kelt": 1926,
      "anken": 1927,
      "lossen": 1928,
      "pferden": 1929,
      "skul": 1930,
      "asiatisches": 1931,
      "lächelnde": 1932,
      "komp": 1933,
      "jemandem": 1934,
      "höhe": 1935,
      "bike": 1936,
      "lastwagen": 1937,
      "balanciert": 1938,
      "schiedsrichter": 1939,
      "café": 1940,
      "skulptur": 1941,
      "jon": 1942,
      "nung": 1943,
      "rein": 1944,
      "vö": 1945,
      "winkt": 1946,
      "zun": 1947,
      "erin": 1948,
      "nel": 1949,
      "heben": 1950,
      "ppich": 1951,
      "hindern": 1952,
      "sern": 1953,
      "ckelt": 1954,
      "brä": 1955,
      "statt": 1956,
      "büro": 1957,
      "schnell": 1958,
      "küsst": 1959,
      "rothaarige": 1960,
      "frisch": 1961,
      "schlaf": 1962,
      "ltelefon": 1963,
      "kordeon": 1964,
      "badehose": 1965,
      "heits": 1966,
      "kanu": 1967,
      "deln": 1968,
      "marsch": 1969,
      "akkordeon": 1970,
      "fällt": 1971,
      "weibliche": 1972,
      "aufnahme": 1973,
      "mobiltelefon": 1974,
      "för": 1975,
      "fischer": 1976,
      "ip": 1977,
      "kha": 1978,
      "mi": 1979,
      "pick": 1980,
      "rollt": 1981,
      "bewe": 1982,
      "durchs": 1983,
      "wegs": 1984,
      "küssen": 1985,
      "stadion": 1986,
      "lock": 1987,
      "mikroskop": 1988,
      "hellbrauner": 1989,
      "projekt": 1990,
      "golf": 1991,
      "felswand": 1992,
      "orangefarbenem": 1993,
      "wäsche": 1994,
      "hilfe": 1995,
      "wettkampf": 1996,
      "schaufel": 1997,
      "blatt": 1998,
      "halsband": 1999,
      "surfbrett": 2000,
      "klassenzimmer": 2001,
      "kapuzen": 2002,
      "geworfen": 2003,
      "bie": 2004,
      "beinen": 2005,
      "glä": 2006,
      "mon": 2007,
      "prä": 2008,
      "szen": 2009,
      "ähn": 2010,
      "außen": 2011,
      "steine": 2012,
      "schaufen": 2013,
      "ckten": 2014,
      "reiter": 2015,
      "halt": 2016,
      "holt": 2017,
      "bäume": 2018,
      "zeigen": 2019,
      "davor": 2020,
      "oberteilen": 2021,
      "igem": 2022,
      "gesichts": 2023,
      "gleitet": 2024,
      "kugel": 2025,
      "kann": 2026,
      "belebte": 2027,
      "ausgestre": 2028,
      "unbefestigten": 2029,
      "tanktop": 2030,
      "schaufenster": 2031,
      "kit": 2032,
      "lü": 2033,
      "osten": 2034,
      "seines": 2035,
      "eingang": 2036,
      "anne": 2037,
      "stir": 2038,
      "delt": 2039,
      "sper": 2040,
      "teppich": 2041,
      "blä": 2042,
      "redet": 2043,
      "spielfeld": 2044,
      "ppt": 2045,
      "how": 2046,
      "tri": 2047,
      "aussieht": 2048,
      "bru": 2049,
      "träger": 2050,
      "station": 2051,
      "ischt": 2052,
      "tzt": 2053,
      "stür": 2054,
      "flo": 2055,
      "steigt": 2056,
      "schnur": 2057,
      "fußballspiel": 2058,
      "skateboarder": 2059,
      "spaß": 2060,
      "säu": 2061,
      "hauses": 2062,
      "linie": 2063,
      "leuchtend": 2064,
      "schaften": 2065,
      "blätter": 2066,
      "seifenblasen": 2067,
      "kaffee": 2068,
      "cheerleader": 2069,
      "jongl": 2070,
      "stirn": 2071,
      "ex": 2072,
      "frü": 2073,
      "tasse": 2074,
      "wind": 2075,
      "untain": 2076,
      "gepark": 2077,
      "gesä": 2078,
      "terr": 2079,
      "bekleide": 2080,
      "bemalt": 2081,
      "urt": 2082,
      "hunden": 2083,
      "füllt": 2084,
      "pull": 2085,
      "skater": 2086,
      "mountain": 2087,
      "bildschirm": 2088,
      "öffnet": 2089,
      "verschiedenen": 2090,
      "kopft": 2091,
      "kranken": 2092,
      "feier": 2093,
      "sicherheits": 2094,
      "gepflasterten": 2095,
      "schnauze": 2096,
      "khaki": 2097,
      "ag": 2098,
      "cre": 2099,
      "kie": 2100,
      "meln": 2101,
      "ringen": 2102,
      "wür": 2103,
      "lto": 2104,
      "spe": 2105,
      "gra": 2106,
      "beweg": 2107,
      "tran": 2108,
      "illt": 2109,
      "stehende": 2110,
      "kai": 2111,
      "tochter": 2112,
      "tat": 2113,
      "tram": 2114,
      "baut": 2115,
      "stücke": 2116,
      "brillen": 2117,
      "geschlossen": 2118,
      "sportler": 2119,
      "objekt": 2120,
      "studen": 2121,
      "instrumente": 2122,
      "rennstrecke": 2123,
      "lilafarbenen": 2124,
      "männlicher": 2125,
      "beln": 2126,
      "schultern": 2127,
      "köpfiger": 2128,
      "farbenfrohen": 2129,
      "figur": 2130,
      "grasbewachsenen": 2131,
      "orient": 2132,
      "komple": 2133,
      "din": 2134,
      "gn": 2135,
      "kten": 2136,
      "ktr": 2137,
      "kal": 2138,
      "nur": 2139,
      "pas": 2140,
      "suchen": 2141,
      "zel": 2142,
      "üben": 2143,
      "scher": 2144,
      "geschen": 2145,
      "test": 2146,
      "becher": 2147,
      "neu": 2148,
      "hoop": 2149,
      "umzug": 2150,
      "labor": 2151,
      "schaukelt": 2152,
      "kocht": 2153,
      "groß": 2154,
      "katze": 2155,
      "sax": 2156,
      "salto": 2157,
      "tische": 2158,
      "bücher": 2159,
      "küste": 2160,
      "namen": 2161,
      "karren": 2162,
      "karate": 2163,
      "kauft": 2164,
      "form": 2165,
      "staub": 2166,
      "ttelt": 2167,
      "meeres": 2168,
      "instrumenten": 2169,
      "teich": 2170,
      "teams": 2171,
      "flaggen": 2172,
      "freunde": 2173,
      "violetten": 2174,
      "igkeit": 2175,
      "stroh": 2176,
      "hula": 2177,
      "kirche": 2178,
      "tunnel": 2179,
      "geige": 2180,
      "händler": 2181,
      "don": 2182,
      "ffer": 2183,
      "gasse": 2184,
      "mes": 2185,
      "ring": 2186,
      "einzel": 2187,
      "streifen": 2188,
      "schach": 2189,
      "hellen": 2190,
      "anda": 2191,
      "umarmen": 2192,
      "gruppen": 2193,
      "unterwegs": 2194,
      "mahl": 2195,
      "parkbank": 2196,
      "gegenstän": 2197,
      "couch": 2198,
      "grauer": 2199,
      "soft": 2200,
      "seiten": 2201,
      "ärme": 2202,
      "freunden": 2203,
      "bullen": 2204,
      "balkon": 2205,
      "aussehende": 2206,
      "wettbe": 2207,
      "gegnerischen": 2208,
      "bedient": 2209,
      "wärts": 2210,
      "szene": 2211,
      "gesäum": 2212,
      "oriental": 2213,
      "kart": 2214,
      "mei": 2215,
      "pi": 2216,
      "sers": 2217,
      "öpfen": 2218,
      "üs": 2219,
      "ütze": 2220,
      "gewand": 2221,
      "mannschaften": 2222,
      "one": 2223,
      "weise": 2224,
      "grillt": 2225,
      "ble": 2226,
      "leg": 2227,
      "schwer": 2228,
      "iern": 2229,
      "fahnen": 2230,
      "wassers": 2231,
      "sprü": 2232,
      "langem": 2233,
      "bringt": 2234,
      "stehenden": 2235,
      "sieben": 2236,
      "matte": 2237,
      "damit": 2238,
      "plaka": 2239,
      "schwimmbrille": 2240,
      "länd": 2241,
      "schneiden": 2242,
      "polin": 2243,
      "dio": 2244,
      "schutzhelmen": 2245,
      "richtet": 2246,
      "abend": 2247,
      "farbigen": 2248,
      "dunkelhäutige": 2249,
      "links": 2250,
      "beleuchteten": 2251,
      "behälter": 2252,
      "kopfhörer": 2253,
      "entspannt": 2254,
      "touristen": 2255,
      "springbrunnen": 2256,
      "trampolin": 2257,
      "ärmello": 2258,
      "wettbewerb": 2259,
      "fte": 2260,
      "fas": 2261,
      "pun": 2262,
      "rin": 2263,
      "sal": 2264,
      "äck": 2265,
      "stift": 2266,
      "schiff": 2267,
      "gemä": 2268,
      "gelegt": 2269,
      "dekor": 2270,
      "rohr": 2271,
      "new": 2272,
      "legen": 2273,
      "ierter": 2274,
      "rett": 2275,
      "gerä": 2276,
      "sell": 2277,
      "hinab": 2278,
      "verwendet": 2279,
      "vergn": 2280,
      "veranda": 2281,
      "entfer": 2282,
      "kahl": 2283,
      "näher": 2284,
      "hüpft": 2285,
      "gitarr": 2286,
      "schwimmer": 2287,
      "karten": 2288,
      "skiern": 2289,
      "poli": 2290,
      "turner": 2291,
      "prof": 2292,
      "schmuck": 2293,
      "zeugen": 2294,
      "bilder": 2295,
      "elektr": 2296,
      "igkeiten": 2297,
      "nase": 2298,
      "jongliert": 2299,
      "bro": 2300,
      "dor": 2301,
      "dis": 2302,
      "hor": 2303,
      "kissen": 2304,
      "pit": 2305,
      "yor": 2306,
      "erd": 2307,
      "auftritt": 2308,
      "graben": 2309,
      "umpf": 2310,
      "mehr": 2311,
      "eilen": 2312,
      "farbe": 2313,
      "sitzende": 2314,
      "satz": 2315,
      "maten": 2316,
      "bauen": 2317,
      "geschn": 2318,
      "geschir": 2319,
      "feldweg": 2320,
      "essens": 2321,
      "schießt": 2322,
      "gestellt": 2323,
      "lächelnder": 2324,
      "schlei": 2325,
      "barfuß": 2326,
      "produ": 2327,
      "dunkler": 2328,
      "hören": 2329,
      "fotografieren": 2330,
      "reparieren": 2331,
      "ruht": 2332,
      "rechts": 2333,
      "wüste": 2334,
      "tief": 2335,
      "picknick": 2336,
      "bläst": 2337,
      "kopftuch": 2338,
      "softball": 2339,
      "polizei": 2340,
      "hlt": 2341,
      "por": 2342,
      "sü": 2343,
      "“-": 2344,
      "inen": 2345,
      "chern": 2346,
      "stet": 2347,
      "gespr": 2348,
      "grim": 2349,
      "bew": 2350,
      "bekommt": 2351,
      "reg": 2352,
      "halte": 2353,
      "hockt": 2354,
      "verfolgt": 2355,
      "handtasche": 2356,
      "steckt": 2357,
      "stern": 2358,
      "asiate": 2359,
      "viel": 2360,
      "schüttelt": 2361,
      "baren": 2362,
      "hellblauen": 2363,
      "protest": 2364,
      "studio": 2365,
      "knie": 2366,
      "braunhaarige": 2367,
      "amerikanische": 2368,
      "taucht": 2369,
      "balken": 2370,
      "aussehender": 2371,
      "cowboyhut": 2372,
      "wandert": 2373,
      "werbung": 2374,
      "zentrum": 2375,
      "berührt": 2376,
      "hammer": 2377,
      "förm": 2378,
      "sperr": 2379,
      "geschlossenen": 2380,
      "mahlzeit": 2381,
      "brot": 2382,
      "keln": 2383,
      "mmen": 2384,
      "sar": 2385,
      "wol": 2386,
      "tele": 2387,
      "vorüber": 2388,
      "iertem": 2389,
      "hoben": 2390,
      "mänteln": 2391,
      "lager": 2392,
      "pfosten": 2393,
      "überfüllten": 2394,
      "vertei": 2395,
      "personengruppe": 2396,
      "bringen": 2397,
      "teilen": 2398,
      "topf": 2399,
      "ktor": 2400,
      "brüne": 2401,
      "getränke": 2402,
      "linken": 2403,
      "zähne": 2404,
      "theke": 2405,
      "gepäck": 2406,
      "burg": 2407,
      "geländemotorrad": 2408,
      "reinigt": 2409,
      "terrasse": 2410,
      "salon": 2411,
      "bra": 2412,
      "fft": 2413,
      "kut": 2414,
      "wän": 2415,
      "öh": 2416,
      "chor": 2417,
      "stark": 2418,
      "gewehr": 2419,
      "arn": 2420,
      "weit": 2421,
      "tex": 2422,
      "grö": 2423,
      "besch": 2424,
      "amüs": 2425,
      "beige": 2426,
      "bach": 2427,
      "umher": 2428,
      "fahrräder": 2429,
      "ika": 2430,
      "koffer": 2431,
      "wasserfall": 2432,
      "farbene": 2433,
      "japan": 2434,
      "tage": 2435,
      "werfer": 2436,
      "vorbeigehen": 2437,
      "küchen": 2438,
      "hüb": 2439,
      "asiaten": 2440,
      "schießen": 2441,
      "karte": 2442,
      "konstru": 2443,
      "heim": 2444,
      "kön": 2445,
      "werkzeug": 2446,
      "felsigen": 2447,
      "pinkfarbenem": 2448,
      "diesem": 2449,
      "gucken": 2450,
      "fallschirm": 2451,
      "quar": 2452,
      "zeichnet": 2453,
      "hochzeits": 2454,
      "lederjacke": 2455,
      "traditioneller": 2456,
      "asiatin": 2457,
      "plakat": 2458,
      "york": 2459,
      "geschirr": 2460,
      "dig": 2461,
      "ian": 2462,
      "mten": 2463,
      "nassen": 2464,
      "tlichen": 2465,
      "yboard": 2466,
      "öhn": 2467,
      "stier": 2468,
      "gelt": 2469,
      "aufblas": 2470,
      "mittag": 2471,
      "onen": 2472,
      "hren": 2473,
      "grä": 2474,
      "neop": 2475,
      "haltung": 2476,
      "fast": 2477,
      "pfütze": 2478,
      "verlassen": 2479,
      "untersucht": 2480,
      "füß": 2481,
      "saal": 2482,
      "langär": 2483,
      "nachdem": 2484,
      "straßenkünstler": 2485,
      "fröh": 2486,
      "mode": 2487,
      "hellbraunen": 2488,
      "hölz": 2489,
      "richten": 2490,
      "dieses": 2491,
      "taucher": 2492,
      "wäscht": 2493,
      "kerl": 2494,
      "winterkleidung": 2495,
      "zahl": 2496,
      "maler": 2497,
      "gießt": 2498,
      "prüft": 2499,
      "brust": 2500,
      "rettungs": 2501,
      "teleskop": 2502,
      "konstruktion": 2503,
      "neopren": 2504,
      "bm": 2505,
      "bin": 2506,
      "clu": 2507,
      "dü": 2508,
      "elt": 2509,
      "ickelt": 2510,
      "kuh": 2511,
      "os": 2512,
      "show": 2513,
      "tö": 2514,
      "tarn": 2515,
      "wanne": 2516,
      "üb": 2517,
      "übt": 2518,
      "schot": 2519,
      "mitarbeiter": 2520,
      "klar": 2521,
      "ehnt": 2522,
      "beieinander": 2523,
      "lege": 2524,
      "umge": 2525,
      "selt": 2526,
      "sees": 2527,
      "pfel": 2528,
      "unterschie": 2529,
      "sitzender": 2530,
      "stab": 2531,
      "stapel": 2532,
      "tafel": 2533,
      "fotogra": 2534,
      "hänge": 2535,
      "kegel": 2536,
      "kurve": 2537,
      "mod": 2538,
      "baumstamm": 2539,
      "skateboardfahrer": 2540,
      "allein": 2541,
      "darunter": 2542,
      "barfüß": 2543,
      "lteam": 2544,
      "drit": 2545,
      "säcken": 2546,
      "dunkelhaarige": 2547,
      "kickt": 2548,
      "braunes": 2549,
      "spazier": 2550,
      "ballteam": 2551,
      "zeuge": 2552,
      "wurde": 2553,
      "rollstuhl": 2554,
      "dreck": 2555,
      "fußgängerüber": 2556,
      "bord": 2557,
      "bunte": 2558,
      "weitere": 2559,
      "block": 2560,
      "paddelt": 2561,
      "passanten": 2562,
      "trommel": 2563,
      "cross": 2564,
      "zunge": 2565,
      "hindernis": 2566,
      "präsen": 2567,
      "pulli": 2568,
      "geschenk": 2569,
      "gemäl": 2570,
      "hölzer": 2571,
      "club": 2572,
      "ast": 2573,
      "gum": 2574,
      "ikin": 2575,
      "lon": 2576,
      "pal": 2577,
      "rug": 2578,
      "utig": 2579,
      "wild": 2580,
      "will": 2581,
      "erkl": 2582,
      "start": 2583,
      "scheinen": 2584,
      "schle": 2585,
      "gezeigt": 2586,
      "arena": 2587,
      "teten": 2588,
      "gri": 2589,
      "vorn": 2590,
      "lehrer": 2591,
      "schwen": 2592,
      "spiels": 2593,
      "latz": 2594,
      "hinaus": 2595,
      "hinterher": 2596,
      "ltern": 2597,
      "samen": 2598,
      "angelt": 2599,
      "chelt": 2600,
      "keyboard": 2601,
      "helfen": 2602,
      "blond": 2603,
      "ziel": 2604,
      "sommer": 2605,
      "konzentr": 2606,
      "vollführt": 2607,
      "luftballons": 2608,
      "rasiert": 2609,
      "jahrmarkt": 2610,
      "bräutig": 2611,
      "bewegt": 2612,
      "transport": 2613,
      "studenten": 2614,
      "karton": 2615,
      "geschnitten": 2616,
      "haltestelle": 2617,
      "brünette": 2618,
      "können": 2619,
      "gräbt": 2620,
      "unterschied": 2621,
      "rugby": 2622,
      "bräutigam": 2623,
      "aku": 2624,
      "cam": 2625,
      "fau": 2626,
      "fischen": 2627,
      "fans": 2628,
      "gür": 2629,
      "hner": 2630,
      "kisten": 2631,
      "moto": 2632,
      "passen": 2633,
      "runden": 2634,
      "weh": 2635,
      "äch": 2636,
      "enten": 2637,
      "ant": 2638,
      "anlage": 2639,
      "gehalten": 2640,
      "deut": 2641,
      "decken": 2642,
      "ord": 2643,
      "besen": 2644,
      "bern": 2645,
      "benutzen": 2646,
      "heu": 2647,
      "reppe": 2648,
      "trie": 2649,
      "kochen": 2650,
      "kolle": 2651,
      "zement": 2652,
      "sitzenden": 2653,
      "handtuch": 2654,
      "sag": 2655,
      "abzu": 2656,
      "platt": 2657,
      "hütte": 2658,
      "schnitt": 2659,
      "merk": 2660,
      "treffen": 2661,
      "ketten": 2662,
      "polo": 2663,
      "flaschen": 2664,
      "säge": 2665,
      "heira": 2666,
      "schreit": 2667,
      "kante": 2668,
      "goldenen": 2669,
      "jockey": 2670,
      "kehrt": 2671,
      "drachen": 2672,
      "feiern": 2673,
      "begut": 2674,
      "biker": 2675,
      "strom": 2676,
      "schäfer": 2677,
      "arbeitskleidung": 2678,
      "tätowier": 2679,
      "spitze": 2680,
      "hellhäutiger": 2681,
      "schnurr": 2682,
      "tatto": 2683,
      "neoprenanzug": 2684,
      "con": 2685,
      "dy": 2686,
      "dau": 2687,
      "trau": 2688,
      "wischt": 2689,
      "inn": 2690,
      "eins": 2691,
      "anger": 2692,
      "anlege": 2693,
      "eig": 2694,
      "unde": 2695,
      "ont": 2696,
      "speisen": 2697,
      "orche": 2698,
      "klat": 2699,
      "bes": 2700,
      "jungs": 2701,
      "neten": 2702,
      "rechten": 2703,
      "segel": 2704,
      "jagen": 2705,
      "olym": 2706,
      "geschm": 2707,
      "hür": 2708,
      "blondem": 2709,
      "los": 2710,
      "bahnsteig": 2711,
      "bahnhof": 2712,
      "musikin": 2713,
      "alleine": 2714,
      "tennisschläger": 2715,
      "lehnen": 2716,
      "flughafen": 2717,
      "ballons": 2718,
      "nahaufnahme": 2719,
      "violet": 2720,
      "zahn": 2721,
      "zäunten": 2722,
      "turnhalle": 2723,
      "weihnachtsbaum": 2724,
      "berges": 2725,
      "verkleidet": 2726,
      "kreuzung": 2727,
      "mitglieder": 2728,
      "chinesischen": 2729,
      "kapuzenpulli": 2730,
      "namens": 2731,
      "gesäumten": 2732,
      "ärmellosen": 2733,
      "vergnü": 2734,
      "entfernt": 2735,
      "modell": 2736,
      "bmx": 2737,
      "gemälde": 2738,
      "konzentriert": 2739,
      "motocross": 2740,
      "plattform": 2741,
      "begutach": 2742,
      "olymp": 2743,
      "musikinstrumen": 2744,
      "eu": 2745,
      "ise": 2746,
      "iften": 2747,
      "lim": 2748,
      "ps": 2749,
      "öte": 2750,
      "eister": 2751,
      "schweiß": 2752,
      "schien": 2753,
      "gesich": 2754,
      "geblü": 2755,
      "weil": 2756,
      "spar": 2757,
      "dies": 2758,
      "blei": 2759,
      "ama": 2760,
      "demon": 2761,
      "gehör": 2762,
      "lagen": 2763,
      "tive": 2764,
      "ausge": 2765,
      "entgegen": 2766,
      "kalten": 2767,
      "bällen": 2768,
      "herab": 2769,
      "handstand": 2770,
      "tax": 2771,
      "traktor": 2772,
      "indische": 2773,
      "schneebedeck": 2774,
      "absperr": 2775,
      "müllt": 2776,
      "mützen": 2777,
      "stadtstraße": 2778,
      "gewickelt": 2779,
      "geschäftigen": 2780,
      "lächelndes": 2781,
      "waldgebiet": 2782,
      "trock": 2783,
      "trompe": 2784,
      "jemanden": 2785,
      "ophon": 2786,
      "rennfahrer": 2787,
      "assi": 2788,
      "amerikanischen": 2789,
      "offenem": 2790,
      "setzen": 2791,
      "befestigt": 2792,
      "trainiert": 2793,
      "soldat": 2794,
      "afrikanische": 2795,
      "weihnachtsmann": 2796,
      "verkehrs": 2797,
      "klapp": 2798,
      "wohnzimmer": 2799,
      "angelru": 2800,
      "röcken": 2801,
      "schildern": 2802,
      "rolltreppe": 2803,
      "gläsern": 2804,
      "kittel": 2805,
      "saxophon": 2806,
      "gegenstände": 2807,
      "beschäft": 2808,
      "anlegestelle": 2809,
      "aber": 2810,
      "bör": 2811,
      "car": 2812,
      "dün": 2813,
      "eltern": 2814,
      "gassi": 2815,
      "kna": 2816,
      "kiste": 2817,
      "malen": 2818,
      "ni": 2819,
      "oze": 2820,
      "ommen": 2821,
      "pär": 2822,
      "tut": 2823,
      "ölk": 2824,
      "inlin": 2825,
      "anzu": 2826,
      "steilen": 2827,
      "schi": 2828,
      "geöff": 2829,
      "ity": 2830,
      "spü": 2831,
      "spei": 2832,
      "rast": 2833,
      "reichen": 2834,
      "stehend": 2835,
      "hou": 2836,
      "hocke": 2837,
      "kleider": 2838,
      "gelehnt": 2839,
      "serv": 2840,
      "med": 2841,
      "ihres": 2842,
      "füßen": 2843,
      "herbst": 2844,
      "handschuh": 2845,
      "stag": 2846,
      "mat": 2847,
      "bauch": 2848,
      "freizeit": 2849,
      "geschä": 2850,
      "rückt": 2851,
      "hüter": 2852,
      "wandbild": 2853,
      "blue": 2854,
      "skatepark": 2855,
      "sonnenbrillen": 2856,
      "motorrädern": 2857,
      "forma": 2858,
      "ped": 2859,
      "steinmauer": 2860,
      "geboren": 2861,
      "baseballkappe": 2862,
      "kunststücke": 2863,
      "restaurants": 2864,
      "obje": 2865,
      "trocken": 2866,
      "bushaltestelle": 2867,
      "heit": 2868,
      "knien": 2869,
      "outfits": 2870,
      "beutel": 2871,
      "trainings": 2872,
      "jugendliche": 2873,
      "begeister": 2874,
      "streichelt": 2875,
      "schaufelt": 2876,
      "weint": 2877,
      "klavier": 2878,
      "joggen": 2879,
      "silbernen": 2880,
      "ttert": 2881,
      "daneben": 2882,
      "bänken": 2883,
      "trägerhemd": 2884,
      "mountainbike": 2885,
      "bewegung": 2886,
      "komplett": 2887,
      "kahlköpfiger": 2888,
      "nähert": 2889,
      "gitarrist": 2890,
      "bewölk": 2891,
      "wänden": 2892,
      "größer": 2893,
      "hölzernen": 2894,
      "schäferhund": 2895,
      "daumen": 2896,
      "orchester": 2897,
      "pärchen": 2898,
      "dä": 2899,
      "dicht": 2900,
      "gä": 2901,
      "line": 2902,
      "mart": 2903,
      "nik": 2904,
      "od": 2905,
      "pr": 2906,
      "pon": 2907,
      "piste": 2908,
      "wet": 2909,
      "yo": 2910,
      "enen": 2911,
      "enden": 2912,
      "erchen": 2913,
      "stel": 2914,
      "aufführung": 2915,
      "aufmerk": 2916,
      "griff": 2917,
      "ckter": 2918,
      "beam": 2919,
      "leger": 2920,
      "letz": 2921,
      "iere": 2922,
      "rekt": 2923,
      "urs": 2924,
      "hohe": 2925,
      "umhang": 2926,
      "later": 2927,
      "balls": 2928,
      "ausstellung": 2929,
      "othe": 2930,
      "hinein": 2931,
      "eska": 2932,
      "sprin": 2933,
      "menschengruppe": 2934,
      "brand": 2935,
      "jack": 2936,
      "malten": 2937,
      "langhaariger": 2938,
      "haarigen": 2939,
      "puppe": 2940,
      "automaten": 2941,
      "zusammenge": 2942,
      "socken": 2943,
      "kletterer": 2944,
      "forme": 2945,
      "frie": 2946,
      "gewöhn": 2947,
      "kurze": 2948,
      "schub": 2949,
      "schule": 2950,
      "kette": 2951,
      "icket": 2952,
      "kunstwerk": 2953,
      "heißen": 2954,
      "schmetter": 2955,
      "rennwagen": 2956,
      "zuschauermenge": 2957,
      "getränken": 2958,
      "graffitis": 2959,
      "kerzen": 2960,
      "greifen": 2961,
      "rollerbla": 2962,
      "einkaufszentrum": 2963,
      "dress": 2964,
      "dread": 2965,
      "mög": 2966,
      "wunderschönen": 2967,
      "selbst": 2968,
      "blättern": 2969,
      "joggt": 2970,
      "schmutzigen": 2971,
      "jüngeren": 2972,
      "ohren": 2973,
      "kopfhörern": 2974,
      "locks": 2975,
      "ausgestreckten": 2976,
      "geparkt": 2977,
      "creme": 2978,
      "passag": 2979,
      "geräten": 2980,
      "horn": 2981,
      "schnurrbart": 2982,
      "tattoo": 2983,
      "hürde": 2984,
      "euro": 2985,
      "inlineska": 2986,
      "dreadlocks": 2987,
      "age": 2988,
      "gan": 2989,
      "hmen": 2990,
      "hmaschine": 2991,
      "oten": 2992,
      "pra": 2993,
      "ping": 2994,
      "san": 2995,
      "tal": 2996,
      "uf": 2997,
      "innt": 2998,
      "enz": 2999,
      "schlen": 3000,
      "klasse": 3001,
      "blume": 3002,
      "ballt": 3003,
      "nes": 3004,
      "neon": 3005,
      "itzt": 3006,
      "vorrichtung": 3007,
      "schwach": 3008,
      "red": 3009,
      "rede": 3010,
      "mädchens": 3011,
      "hol": 3012,
      "seum": 3013,
      "füße": 3014,
      "füttert": 3015,
      "brennen": 3016,
      "hinterhof": 3017,
      "kasten": 3018,
      "älteres": 3019,
      "kamel": 3020,
      "puck": 3021,
      "flip": 3022,
      "samm": 3023,
      "nähmaschine": 3024,
      "vorbeifährt": 3025,
      "kür": 3026,
      "kümmer": 3027,
      "warn": 3028,
      "gitarren": 3029,
      "rosafarbenem": 3030,
      "sanddü": 3031,
      "motorroller": 3032,
      "ruder": 3033,
      "rudert": 3034,
      "frise": 3035,
      "gewän": 3036,
      "boots": 3037,
      "baseballmütze": 3038,
      "ssers": 3039,
      "direkt": 3040,
      "schutzbrille": 3041,
      "kids": 3042,
      "torhüter": 3043,
      "maschinen": 3044,
      "teig": 3045,
      "keit": 3046,
      "museum": 3047,
      "typen": 3048,
      "tricks": 3049,
      "städtische": 3050,
      "geldbör": 3051,
      "bunt": 3052,
      "lust": 3053,
      "boxen": 3054,
      "bowlingbahn": 3055,
      "flüss": 3056,
      "nickerchen": 3057,
      "lampe": 3058,
      "treibt": 3059,
      "aufgere": 3060,
      "krankenhaus": 3061,
      "neugeboren": 3062,
      "einzelner": 3063,
      "dorf": 3064,
      "diskut": 3065,
      "violettem": 3066,
      "beschäftigt": 3067,
      "aufmerksam": 3068,
      "friseur": 3069,
      "app": 3070,
      "beine": 3071,
      "har": 3072,
      "htz": 3073,
      "ks": 3074,
      "krä": 3075,
      "pist": 3076,
      "piz": 3077,
      "plü": 3078,
      "runter": 3079,
      "tim": 3080,
      "up": 3081,
      "ausch": 3082,
      "anhat": 3083,
      "stan": 3084,
      "stangen": 3085,
      "schlie": 3086,
      "schuss": 3087,
      "aufs": 3088,
      "ard": 3089,
      "mithilfe": 3090,
      "rauch": 3091,
      "kle": 3092,
      "klam": 3093,
      "rahmen": 3094,
      "besitz": 3095,
      "bearbeitet": 3096,
      "beißt": 3097,
      "reiche": 3098,
      "les": 3099,
      "hot": 3100,
      "trennen": 3101,
      "verheira": 3102,
      "bälle": 3103,
      "herd": 3104,
      "herz": 3105,
      "lied": 3106,
      "strick": 3107,
      "zeige": 3108,
      "bückt": 3109,
      "fertig": 3110,
      "pack": 3111,
      "spielerin": 3112,
      "chtung": 3113,
      "bauern": 3114,
      "freiluft": 3115,
      "steuer": 3116,
      "flausch": 3117,
      "ign": 3118,
      "hüte": 3119,
      "natur": 3120,
      "eration": 3121,
      "findet": 3122,
      "schwimmbad": 3123,
      "cours": 3124,
      "kariertem": 3125,
      "klettergerüst": 3126,
      "gewich": 3127,
      "ktur": 3128,
      "steinigen": 3129,
      "kontro": 3130,
      "sseln": 3131,
      "wohner": 3132,
      "kunststoff": 3133,
      "attra": 3134,
      "feuert": 3135,
      "noten": 3136,
      "rucksäcken": 3137,
      "frem": 3138,
      "heiß": 3139,
      "regenschirmen": 3140,
      "häusern": 3141,
      "bill": 3142,
      "verkaufs": 3143,
      "leit": 3144,
      "liegenden": 3145,
      "seilen": 3146,
      "schlagzeu": 3147,
      "gewässers": 3148,
      "einkaufsta": 3149,
      "rückwärts": 3150,
      "hause": 3151,
      "nehmer": 3152,
      "lachend": 3153,
      "drahtz": 3154,
      "feuerwehrmänner": 3155,
      "beleuchtung": 3156,
      "afrikanischer": 3157,
      "bowlingkugel": 3158,
      "booten": 3159,
      "tüte": 3160,
      "kaut": 3161,
      "berühren": 3162,
      "schlafanzug": 3163,
      "marschiert": 3164,
      "dinge": 3165,
      "strohhut": 3166,
      "messer": 3167,
      "wasserski": 3168,
      "süß": 3169,
      "amüsieren": 3170,
      "aufblasbaren": 3171,
      "fotografen": 3172,
      "geblümten": 3173,
      "trompete": 3174,
      "angelrute": 3175,
      "geschäften": 3176,
      "formation": 3177,
      "sammlung": 3178,
      "verheirate": 3179,
      "schlagzeuger": 3180,
      "digen": 3181,
      "hi": 3182,
      "krie": 3183,
      "ktive": 3184,
      "nasse": 3185,
      "sort": 3186,
      "wich": 3187,
      "wissen": 3188,
      "inten": 3189,
      "eras": 3190,
      "eicht": 3191,
      "stur": 3192,
      "stol": 3193,
      "iten": 3194,
      "onne": 3195,
      "spor": 3196,
      "robe": 3197,
      "bestehende": 3198,
      "jung": 3199,
      "reicht": 3200,
      "schwanz": 3201,
      "spielkleidung": 3202,
      "fahne": 3203,
      "gerich": 3204,
      "auszu": 3205,
      "fahrgeschäft": 3206,
      "gelassen": 3207,
      "verz": 3208,
      "web": 3209,
      "allt": 3210,
      "strü": 3211,
      "fegt": 3212,
      "tation": 3213,
      "ferenz": 3214,
      "packt": 3215,
      "wahr": 3216,
      "waschen": 3217,
      "waffe": 3218,
      "wirbelt": 3219,
      "kameras": 3220,
      "poster": 3221,
      "podi": 3222,
      "sammelt": 3223,
      "näch": 3224,
      "kopfüber": 3225,
      "platte": 3226,
      "gegensei": 3227,
      "schnü": 3228,
      "helme": 3229,
      "fußballfeld": 3230,
      "graue": 3231,
      "locken": 3232,
      "straßenhändler": 3233,
      "sandstrand": 3234,
      "kurs": 3235,
      "moped": 3236,
      "zeitschrift": 3237,
      "sportveranstaltung": 3238,
      "schlitt": 3239,
      "stofft": 3240,
      "gebil": 3241,
      "konferenz": 3242,
      "flachen": 3243,
      "prob": 3244,
      "noti": 3245,
      "körben": 3246,
      "gleisen": 3247,
      "stufe": 3248,
      "lippen": 3249,
      "dunkelblauen": 3250,
      "freu": 3251,
      "schreiben": 3252,
      "door": 3253,
      "köpfen": 3254,
      "operation": 3255,
      "rennauto": 3256,
      "jubeln": 3257,
      "outdoor": 3258,
      "frisur": 3259,
      "abendessen": 3260,
      "kragen": 3261,
      "offenbar": 3262,
      "dudel": 3263,
      "farbige": 3264,
      "silhou": 3265,
      "feuerwehrmann": 3266,
      "riesige": 3267,
      "elef": 3268,
      "wundert": 3269,
      "stöcken": 3270,
      "cafe": 3271,
      "jüngere": 3272,
      "flügeln": 3273,
      "ival": 3274,
      "geländemotorradfahrer": 3275,
      "super": 3276,
      "backsteingebäude": 3277,
      "film": 3278,
      "glatz": 3279,
      "nieder": 3280,
      "marschieren": 3281,
      "picknicktisch": 3282,
      "gespräch": 3283,
      "beigefarbenen": 3284,
      "schotter": 3285,
      "bordstein": 3286,
      "grillen": 3287,
      "schwenkt": 3288,
      "geschmink": 3289,
      "schweißt": 3290,
      "taxi": 3291,
      "bluejeans": 3292,
      "wettrennen": 3293,
      "othek": 3294,
      "rollerblades": 3295,
      "flüssigkeit": 3296,
      "wissenschaft": 3297,
      "gegenseitig": 3298,
      "12": 3299,
      "bon": 3300,
      "bunter": 3301,
      "biet": 3302,
      "bbelt": 3303,
      "drückt": 3304,
      "fass": 3305,
      "gal": 3306,
      "hig": 3307,
      "hart": 3308,
      "las": 3309,
      "mor": 3310,
      "reinigen": 3311,
      "sor": 3312,
      "tiert": 3313,
      "tlich": 3314,
      "ttern": 3315,
      "uhr": 3316,
      "engel": 3317,
      "erie": 3318,
      "anhän": 3319,
      "ansammlung": 3320,
      "ungewöhn": 3321,
      "schar": 3322,
      "schrau": 3323,
      "schna": 3324,
      "aufzu": 3325,
      "rauchen": 3326,
      "splatz": 3327,
      "tech": 3328,
      "ckel": 3329,
      "ckigen": 3330,
      "ckeln": 3331,
      "blö": 3332,
      "befahren": 3333,
      "bekommen": 3334,
      "betrie": 3335,
      "vorne": 3336,
      "schwert": 3337,
      "refle": 3338,
      "achter": 3339,
      "hundes": 3340,
      "esel": 3341,
      "untersuchen": 3342,
      "wasserflasche": 3343,
      "herren": 3344,
      "feder": 3345,
      "tabl": 3346,
      "dazu": 3347,
      "gehende": 3348,
      "way": 3349,
      "flöte": 3350,
      "bass": 3351,
      "parkt": 3352,
      "wart": 3353,
      "grasfläche": 3354,
      "fontä": 3355,
      "karre": 3356,
      "jeansjacke": 3357,
      "schüt": 3358,
      "sportwagen": 3359,
      "bürste": 3360,
      "rande": 3361,
      "gebunden": 3362,
      "geburt": 3363,
      "halsk": 3364,
      "eishockeyspieler": 3365,
      "noch": 3366,
      "blumenmuster": 3367,
      "dunkelhaariger": 3368,
      "badewanne": 3369,
      "dose": 3370,
      "viol": 3371,
      "break": 3372,
      "leicht": 3373,
      "köche": 3374,
      "herunterge": 3375,
      "altmod": 3376,
      "tauben": 3377,
      "fernseh": 3378,
      "frisbeescheibe": 3379,
      "wandern": 3380,
      "trainieren": 3381,
      "spritzen": 3382,
      "kreide": 3383,
      "köpfige": 3384,
      "farbenfroher": 3385,
      "stöcke": 3386,
      "surfboard": 3387,
      "geschäftskleidung": 3388,
      "gepun": 3389,
      "welpen": 3390,
      "paddeln": 3391,
      "planscht": 3392,
      "entspannen": 3393,
      "waschsalon": 3394,
      "sängerin": 3395,
      "eisenbahn": 3396,
      "treiben": 3397,
      "schilder": 3398,
      "tribü": 3399,
      "kalb": 3400,
      "legten": 3401,
      "dekora": 3402,
      "turnerin": 3403,
      "grimasse": 3404,
      "london": 3405,
      "palmen": 3406,
      "kollegen": 3407,
      "besuch": 3408,
      "begutachtet": 3409,
      "bewölkten": 3410,
      "brandung": 3411,
      "sanddüne": 3412,
      "geldbörse": 3413,
      "drahtzaun": 3414,
      "süßigkeiten": 3415,
      "podium": 3416,
      "high": 3417,
      "20": 3418,
      "dir": 3419,
      "dia": 3420,
      "dru": 3421,
      "ep": 3422,
      "fra": 3423,
      "flan": 3424,
      "hy": 3425,
      "hten": 3426,
      "hier": 3427,
      "iro": 3428,
      "kis": 3429,
      "kran": 3430,
      "lein": 3431,
      "nch": 3432,
      "ofen": 3433,
      "putzen": 3434,
      "sy": 3435,
      "sse": 3436,
      "zöpfen": 3437,
      "inder": 3438,
      "ente": 3439,
      "engen": 3440,
      "einrad": 3441,
      "erleu": 3442,
      "ana": 3443,
      "angehör": 3444,
      "unt": 3445,
      "stil": 3446,
      "gesta": 3447,
      "gefüllt": 3448,
      "gehoben": 3449,
      "mittage": 3450,
      "derby": 3451,
      "lleicht": 3452,
      "imbis": 3453,
      "rollen": 3454,
      "beglei": 3455,
      "bemal": 3456,
      "bespritzt": 3457,
      "bewundert": 3458,
      "bert": 3459,
      "beisam": 3460,
      "neue": 3461,
      "leckt": 3462,
      "king": 3463,
      "fabr": 3464,
      "hotel": 3465,
      "schwarzwei": 3466,
      "tren": 3467,
      "tigt": 3468,
      "ausgeb": 3469,
      "boten": 3470,
      "überprüft": 3471,
      "übergewich": 3472,
      "verb": 3473,
      "verlässt": 3474,
      "brauen": 3475,
      "handwerk": 3476,
      "handschuhe": 3477,
      "farbenes": 3478,
      "saiten": 3479,
      "oberfläche": 3480,
      "bün": 3481,
      "büschen": 3482,
      "ussell": 3483,
      "spielern": 3484,
      "trag": 3485,
      "indian": 3486,
      "zenden": 3487,
      "pult": 3488,
      "flur": 3489,
      "flach": 3490,
      "näht": 3491,
      "hüpfen": 3492,
      "schieben": 3493,
      "vielleicht": 3494,
      "position": 3495,
      "motorräder": 3496,
      "baumes": 3497,
      "sportkleidung": 3498,
      "festhält": 3499,
      "festival": 3500,
      "baseballspiel": 3501,
      "kunft": 3502,
      "izin": 3503,
      "izieren": 3504,
      "waldweg": 3505,
      "struktur": 3506,
      "eishockey": 3507,
      "obdach": 3508,
      "gleichen": 3509,
      "säug": 3510,
      "regenbogen": 3511,
      "öffnung": 3512,
      "dog": 3513,
      "maulkorb": 3514,
      "golden": 3515,
      "werkstatt": 3516,
      "gemu": 3517,
      "interess": 3518,
      "scheinbar": 3519,
      "orangefarbene": 3520,
      "haube": 3521,
      "fernglas": 3522,
      "ffelt": 3523,
      "teenageralter": 3524,
      "kricket": 3525,
      "folgen": 3526,
      "ruhigen": 3527,
      "ziegelmauer": 3528,
      "feiert": 3529,
      "starren": 3530,
      "theater": 3531,
      "versammlung": 3532,
      "löffel": 3533,
      "wunderschöne": 3534,
      "zeichnung": 3535,
      "klassenraum": 3536,
      "kapuze": 3537,
      "afroamerikaner": 3538,
      "verkleidete": 3539,
      "dance": 3540,
      "tennisspielerin": 3541,
      "videospiel": 3542,
      "eingezäunten": 3543,
      "vögel": 3544,
      "bewegen": 3545,
      "bietet": 3546,
      "früchte": 3547,
      "kies": 3548,
      "ringer": 3549,
      "profi": 3550,
      "langärmel": 3551,
      "zahlreiche": 3552,
      "dritte": 3553,
      "spaziergang": 3554,
      "fußgängerüberweg": 3555,
      "akustik": 3556,
      "faulen": 3557,
      "schienen": 3558,
      "demonstr": 3559,
      "medizin": 3560,
      "schubkarre": 3561,
      "gewändern": 3562,
      "diskutieren": 3563,
      "dudelsack": 3564,
      "silhouette": 3565,
      "elefanten": 3566,
      "anhänger": 3567,
      "violine": 3568,
      "gepunkte": 3569,
      "mittagessen": 3570,
      "bemalung": 3571,
      "beisammen": 3572,
      "obdachlo": 3573,
      "aden": 3574,
      "bum": 3575,
      "cor": 3576,
      "fi": 3577,
      "fänger": 3578,
      "ffeln": 3579,
      "gung": 3580,
      "gym": 3581,
      "gurt": 3582,
      "han": 3583,
      "ickt": 3584,
      "kund": 3585,
      "mc": 3586,
      "nu": 3587,
      "py": 3588,
      "pil": 3589,
      "ri": 3590,
      "ron": 3591,
      "rik": 3592,
      "usa": 3593,
      "wor": 3594,
      "xt": 3595,
      "zin": 3596,
      "zten": 3597,
      "insp": 3598,
      "einzu": 3599,
      "geschw": 3600,
      "gebeugt": 3601,
      "gesell": 3602,
      "ität": 3603,
      "arzt": 3604,
      "spark": 3605,
      "asien": 3606,
      "grin": 3607,
      "zubereitet": 3608,
      "rosar": 3609,
      "bevor": 3610,
      "netze": 3611,
      "iertes": 3612,
      "rechte": 3613,
      "kindes": 3614,
      "holen": 3615,
      "sessel": 3616,
      "ballerin": 3617,
      "aussicht": 3618,
      "fahrzeuge": 3619,
      "pflü": 3620,
      "hindurch": 3621,
      "überdach": 3622,
      "verdeckt": 3623,
      "spren": 3624,
      "webt": 3625,
      "landet": 3626,
      "ikul": 3627,
      "schaum": 3628,
      "schaukeln": 3629,
      "radrennen": 3630,
      "stehender": 3631,
      "kape": 3632,
      "liefer": 3633,
      "stahl": 3634,
      "teilweise": 3635,
      "maschen": 3636,
      "zeitig": 3637,
      "bühnen": 3638,
      "entlanggeht": 3639,
      "pati": 3640,
      "tracht": 3641,
      "bauarbeiten": 3642,
      "indischer": 3643,
      "fahrrads": 3644,
      "werke": 3645,
      "bliothek": 3646,
      "kesen": 3647,
      "platten": 3648,
      "vorbeigeht": 3649,
      "gestikul": 3650,
      "rosafarbener": 3651,
      "rosafarbene": 3652,
      "colle": 3653,
      "rennens": 3654,
      "karussell": 3655,
      "sandwich": 3656,
      "bandana": 3657,
      "front": 3658,
      "moment": 3659,
      "schirme": 3660,
      "bare": 3661,
      "gestreiftes": 3662,
      "wohl": 3663,
      "marktplatz": 3664,
      "dri": 3665,
      "drinnen": 3666,
      "badezimmer": 3667,
      "trop": 3668,
      "busses": 3669,
      "bibliothek": 3670,
      "brechen": 3671,
      "innenstadt": 3672,
      "marine": 3673,
      "jubelt": 3674,
      "reifenschaukel": 3675,
      "wenden": 3676,
      "aussehenden": 3677,
      "trainer": 3678,
      "beginnt": 3679,
      "schaufeln": 3680,
      "pfadfin": 3681,
      "einsamer": 3682,
      "gleichzeitig": 3683,
      "mmerung": 3684,
      "snowboardfahrer": 3685,
      "banner": 3686,
      "afroamerikanische": 3687,
      "tiere": 3688,
      "asiatinnen": 3689,
      "trommeln": 3690,
      "clowns": 3691,
      "schulkinder": 3692,
      "mitglied": 3693,
      "hellhäutige": 3694,
      "filmt": 3695,
      "bändern": 3696,
      "niedr": 3697,
      "bräun": 3698,
      "rothaariges": 3699,
      "lockigen": 3700,
      "stürzt": 3701,
      "floß": 3702,
      "säulen": 3703,
      "stirnband": 3704,
      "khakifarbenen": 3705,
      "figuren": 3706,
      "sprüht": 3707,
      "ländlichen": 3708,
      "profess": 3709,
      "elektron": 3710,
      "pitcher": 3711,
      "produkte": 3712,
      "grimassen": 3713,
      "förmigen": 3714,
      "rettungswesten": 3715,
      "töpfer": 3716,
      "gürtel": 3717,
      "passenden": 3718,
      "klatscht": 3719,
      "dämmerung": 3720,
      "kürbis": 3721,
      "neugeborenes": 3722,
      "nächsten": 3723,
      "glatzköpfiger": 3724,
      "reflekt": 3725,
      "achterbahn": 3726,
      "tribüne": 3727,
      "irokesen": 3728,
      "leinwand": 3729,
      "imbiss": 3730,
      "fabrik": 3731,
      "säugling": 3732,
      "akustikgitarre": 3733,
      "gymna": 3734,
      "kapelle": 3735,
      "brei": 3736,
      "dung": 3737,
      "ell": 3738,
      "gers": 3739,
      "ofon": 3740,
      "off": 3741,
      "putz": 3742,
      "rund": 3743,
      "ringt": 3744,
      "smo": 3745,
      "tu": 3746,
      "ven": 3747,
      "wi": 3748,
      "wil": 3749,
      "wange": 3750,
      "wink": 3751,
      "eingesch": 3752,
      "einkäufer": 3753,
      "chan": 3754,
      "ansicht": 3755,
      "anzeige": 3756,
      "unge": 3757,
      "stuch": 3758,
      "gemacht": 3759,
      "gefüllten": 3760,
      "itr": 3761,
      "itä": 3762,
      "artigen": 3763,
      "deren": 3764,
      "manche": 3765,
      "onnen": 3766,
      "weis": 3767,
      "spä": 3768,
      "oranger": 3769,
      "genommen": 3770,
      "raft": 3771,
      "zucker": 3772,
      "ehen": 3773,
      "denk": 3774,
      "beladen": 3775,
      "menade": 3776,
      "bag": 3777,
      "reis": 3778,
      "vorbereitet": 3779,
      "hallen": 3780,
      "gericht": 3781,
      "hocker": 3782,
      "lat": 3783,
      "lalter": 3784,
      "tik": 3785,
      "etten": 3786,
      "irl": 3787,
      "ausdruck": 3788,
      "pfe": 3789,
      "gelen": 3790,
      "utt": 3791,
      "welt": 3792,
      "unterwäsche": 3793,
      "mex": 3794,
      "entfern": 3795,
      "bricht": 3796,
      "kab": 3797,
      "leucht": 3798,
      "saft": 3799,
      "langhaarige": 3800,
      "lichkeit": 3801,
      "gehender": 3802,
      "wake": 3803,
      "fußballteam": 3804,
      "schneeh": 3805,
      "stühle": 3806,
      "puppen": 3807,
      "geschmü": 3808,
      "werbe": 3809,
      "händchen": 3810,
      "viertel": 3811,
      "zeugnis": 3812,
      "lernt": 3813,
      "sowie": 3814,
      "gewicht": 3815,
      "motiv": 3816,
      "perü": 3817,
      "turm": 3818,
      "turban": 3819,
      "halstuch": 3820,
      "kunstwerke": 3821,
      "promenade": 3822,
      "surfen": 3823,
      "drink": 3824,
      "basketballspiel": 3825,
      "kul": 3826,
      "knei": 3827,
      "strecken": 3828,
      "rutschen": 3829,
      "radfahrern": 3830,
      "schlagmann": 3831,
      "bull": 3832,
      "abends": 3833,
      "papiere": 3834,
      "läuferin": 3835,
      "falls": 3836,
      "fahrzeugs": 3837,
      "cowboys": 3838,
      "ruhen": 3839,
      "computerbildschirm": 3840,
      "violett": 3841,
      "bilden": 3842,
      "laufbahn": 3843,
      "sprecher": 3844,
      "rollschuh": 3845,
      "feuerwehrleute": 3846,
      "streicht": 3847,
      "school": 3848,
      "pflasterstraße": 3849,
      "pflanze": 3850,
      "lebensmittelgeschäft": 3851,
      "blase": 3852,
      "ausgestellt": 3853,
      "boxer": 3854,
      "plastiktüte": 3855,
      "boote": 3856,
      "türen": 3857,
      "unbefestigte": 3858,
      "tänzerin": 3859,
      "welpe": 3860,
      "fingern": 3861,
      "sauber": 3862,
      "waschbecken": 3863,
      "prüfen": 3864,
      "aufgerei": 3865,
      "gesichtsbemalung": 3866,
      "exper": 3867,
      "geparkten": 3868,
      "saxofon": 3869,
      "donal": 3870,
      "porträ": 3871,
      "barfüßige": 3872,
      "kettensäge": 3873,
      "olympischen": 3874,
      "mülltonne": 3875,
      "ozean": 3876,
      "gäste": 3877,
      "laternen": 3878,
      "inlineskates": 3879,
      "pistole": 3880,
      "strickmütze": 3881,
      "verheiratetes": 3882,
      "bündel": 3883,
      "gemuster": 3884,
      "gestikuliert": 3885,
      "reflektieren": 3886,
      "gymnastik": 3887,
      "asp": 3888,
      "apfel": 3889,
      "bam": 3890,
      "dj": 3891,
      "fun": 3892,
      "glän": 3893,
      "hist": 3894,
      "ic": 3895,
      "ial": 3896,
      "kas": 3897,
      "kick": 3898,
      "mach": 3899,
      "mischt": 3900,
      "nass": 3901,
      "pre": 3902,
      "rel": 3903,
      "sw": 3904,
      "snack": 3905,
      "vol": 3906,
      "win": 3907,
      "zy": 3908,
      "zau": 3909,
      "öl": 3910,
      "inner": 3911,
      "inline": 3912,
      "einfahrt": 3913,
      "einheim": 3914,
      "ere": 3915,
      "aneinander": 3916,
      "ansieht": 3917,
      "anweis": 3918,
      "strau": 3919,
      "stem": 3920,
      "stisch": 3921,
      "stunt": 3922,
      "ges": 3923,
      "gefle": 3924,
      "gelegen": 3925,
      "ital": 3926,
      "ief": 3927,
      "aufgestellt": 3928,
      "arti": 3929,
      "rauto": 3930,
      "spur": 3931,
      "tee": 3932,
      "orden": 3933,
      "llner": 3934,
      "mäher": 3935,
      "iment": 3936,
      "ehmen": 3937,
      "spiele": 3938,
      "rost": 3939,
      "roba": 3940,
      "beach": 3941,
      "bedruck": 3942,
      "begleitet": 3943,
      "bekann": 3944,
      "bemalten": 3945,
      "ampel": 3946,
      "nebel": 3947,
      "reihen": 3948,
      "vorstellung": 3949,
      "schwingen": 3950,
      "fal": 3951,
      "achten": 3952,
      "home": 3953,
      "schwarzhaarige": 3954,
      "lacro": 3955,
      "eta": 3956,
      "auslage": 3957,
      "ott": 3958,
      "verl": 3959,
      "unterricht": 3960,
      "ister": 3961,
      "dreirad": 3962,
      "wassermel": 3963,
      "emon": 3964,
      "katzen": 3965,
      "sat": 3966,
      "strumpf": 3967,
      "teilnehmer": 3968,
      "ckenden": 3969,
      "toi": 3970,
      "angeboten": 3971,
      "spielerisch": 3972,
      "watet": 3973,
      "waffel": 3974,
      "stüten": 3975,
      "pudel": 3976,
      "post": 3977,
      "fli": 3978,
      "flus": 3979,
      "schneeanzug": 3980,
      "igiert": 3981,
      "kelten": 3982,
      "kellner": 3983,
      "mün": 3984,
      "steiger": 3985,
      "schnitzt": 3986,
      "paare": 3987,
      "autobahn": 3988,
      "schwimmweste": 3989,
      "cola": 3990,
      "sonnenschirm": 3991,
      "schafe": 3992,
      "sandigen": 3993,
      "herumstehen": 3994,
      "moder": 3995,
      "schütz": 3996,
      "schüsseln": 3997,
      "holzboden": 3998,
      "gestreifter": 3999,
      "iziert": 4000,
      "feuerweh": 4001,
      "parcours": 4002,
      "badeanzügen": 4003,
      "knöpfen": 4004,
      "dock": 4005,
      "schriften": 4006,
      "sprungbrett": 4007,
      "dunklem": 4008,
      "amerikanischer": 4009,
      "männliches": 4010,
      "altes": 4011,
      "akroba": 4012,
      "betonwand": 4013,
      "kraft": 4014,
      "teile": 4015,
      "gipfel": 4016,
      "spannt": 4017,
      "computern": 4018,
      "pfahl": 4019,
      "freundin": 4020,
      "verschneite": 4021,
      "cello": 4022,
      "köpfe": 4023,
      "möbel": 4024,
      "ständer": 4025,
      "stößt": 4026,
      "selbe": 4027,
      "banan": 4028,
      "banjo": 4029,
      "tüten": 4030,
      "china": 4031,
      "blocken": 4032,
      "blockt": 4033,
      "burger": 4034,
      "traditionellen": 4035,
      "fliesen": 4036,
      "laptops": 4037,
      "treppenstufen": 4038,
      "lampen": 4039,
      "schwebt": 4040,
      "golfball": 4041,
      "mountainbiker": 4042,
      "agieren": 4043,
      "bewegungen": 4044,
      "passt": 4045,
      "gegenständen": 4046,
      "punkt": 4047,
      "brocken": 4048,
      "schleife": 4049,
      "regal": 4050,
      "wolken": 4051,
      "texas": 4052,
      "quarter": 4053,
      "langärm": 4054,
      "tarnkleidung": 4055,
      "übung": 4056,
      "klaren": 4057,
      "seltsam": 4058,
      "präsentation": 4059,
      "gumm": 4060,
      "transportiert": 4061,
      "tätowierung": 4062,
      "tätowierungen": 4063,
      "traur": 4064,
      "eignis": 4065,
      "vergnügung": 4066,
      "gesichtern": 4067,
      "geöffneten": 4068,
      "trainingsanzug": 4069,
      "yoga": 4070,
      "jackett": 4071,
      "frieden": 4072,
      "kümmert": 4073,
      "heißluftballon": 4074,
      "billard": 4075,
      "verkaufsstand": 4076,
      "strüm": 4077,
      "schnüffelt": 4078,
      "gebildet": 4079,
      "tablett": 4080,
      "fontäne": 4081,
      "geburtstag": 4082,
      "breakdance": 4083,
      "gepunkteten": 4084,
      "mcdonal": 4085,
      "rikscha": 4086,
      "gesellschaft": 4087,
      "lieferwagen": 4088,
      "maschendrahtzaun": 4089,
      "pfadfinder": 4090,
      "asphalt": 4091,
      "bambus": 4092,
      "glänzenden": 4093,
      "strauß": 4094,
      "lacrosse": 4095,
      "feuerwehrauto": 4096,
      "vergnügungspark": 4097,
      "ac": 4098,
      "atur": 4099,
      "ahl": 4100,
      "ace": 4101,
      "city": 4102,
      "diger": 4103,
      "fet": 4104,
      "fär": 4105,
      "gas": 4106,
      "ium": 4107,
      "jen": 4108,
      "krü": 4109,
      "kasse": 4110,
      "ktiv": 4111,
      "mm": 4112,
      "ph": 4113,
      "pin": 4114,
      "rikot": 4115,
      "va": 4116,
      "wette": 4117,
      "indem": 4118,
      "einsatz": 4119,
      "einwohner": 4120,
      "erzeugnis": 4121,
      "auge": 4122,
      "unfall": 4123,
      "unorden": 4124,
      "eier": 4125,
      "stor": 4126,
      "schutt": 4127,
      "gesen": 4128,
      "gesehen": 4129,
      "gefallen": 4130,
      "spär": 4131,
      "llie": 4132,
      "llig": 4133,
      "ims": 4134,
      "besteht": 4135,
      "ness": 4136,
      "andschaft": 4137,
      "reise": 4138,
      "vorsprung": 4139,
      "vorführung": 4140,
      "hab": 4141,
      "ureinwohner": 4142,
      "pper": 4143,
      "hoo": 4144,
      "hoher": 4145,
      "lade": 4146,
      "ausflug": 4147,
      "pfei": 4148,
      "pfeil": 4149,
      "pfanne": 4150,
      "bohr": 4151,
      "überall": 4152,
      "verschw": 4153,
      "verwenden": 4154,
      "untergrund": 4155,
      "füllen": 4156,
      "zebra": 4157,
      "wasserrutsche": 4158,
      "wasserspren": 4159,
      "kastan": 4160,
      "ließt": 4161,
      "tischer": 4162,
      "ish": 4163,
      "isse": 4164,
      "fecht": 4165,
      "teilnehmen": 4166,
      "oberen": 4167,
      "lichem": 4168,
      "tomaten": 4169,
      "imming": 4170,
      "angebra": 4171,
      "kleineren": 4172,
      "papp": 4173,
      "jeder": 4174,
      "fußballt": 4175,
      "stützt": 4176,
      "steg": 4177,
      "sammeln": 4178,
      "geschlagen": 4179,
      "nachbar": 4180,
      "abgeworfen": 4181,
      "kopfschmuck": 4182,
      "ängen": 4183,
      "örtlichen": 4184,
      "fußballdress": 4185,
      "dunkelten": 4186,
      "straßenverkäufer": 4187,
      "karo": 4188,
      "schale": 4189,
      "formt": 4190,
      "babys": 4191,
      "holzbank": 4192,
      "perlen": 4193,
      "darbiet": 4194,
      "baseballschläger": 4195,
      "fitness": 4196,
      "woll": 4197,
      "drängt": 4198,
      "eiscreme": 4199,
      "kostüme": 4200,
      "live": 4201,
      "telefonze": 4202,
      "insel": 4203,
      "kleinkinder": 4204,
      "braunhaariger": 4205,
      "häuser": 4206,
      "richtungen": 4207,
      "licherweise": 4208,
      "pinkfarbener": 4209,
      "männlichen": 4210,
      "john": 4211,
      "familien": 4212,
      "aktiv": 4213,
      "türkis": 4214,
      "türöffnung": 4215,
      "brettspiel": 4216,
      "fächer": 4217,
      "kerle": 4218,
      "mittelalter": 4219,
      "linder": 4220,
      "fischt": 4221,
      "draht": 4222,
      "jugendlichen": 4223,
      "eimern": 4224,
      "mask": 4225,
      "streichen": 4226,
      "vorderseite": 4227,
      "obststand": 4228,
      "fußgängern": 4229,
      "lebensmitteln": 4230,
      "gabel": 4231,
      "pelz": 4232,
      "löschen": 4233,
      "turnier": 4234,
      "turnschuhen": 4235,
      "armee": 4236,
      "leuchtenden": 4237,
      "afroamerikanischer": 4238,
      "jüngerer": 4239,
      "silberfarbenen": 4240,
      "pferdeschwanz": 4241,
      "schlauchboot": 4242,
      "stammes": 4243,
      "spitzen": 4244,
      "schwester": 4245,
      "geländewagen": 4246,
      "zunehmen": 4247,
      "ähnlichen": 4248,
      "säule": 4249,
      "bekleidet": 4250,
      "bekleidete": 4251,
      "bekleideter": 4252,
      "student": 4253,
      "laborkittel": 4254,
      "staubsau": 4255,
      "schachtel": 4256,
      "orientalische": 4257,
      "pira": 4258,
      "legg": 4259,
      "sprüh": 4260,
      "erdhügel": 4261,
      "gesprungen": 4262,
      "hobenen": 4263,
      "verteilt": 4264,
      "japanischen": 4265,
      "übungen": 4266,
      "seltsamen": 4267,
      "präsentiert": 4268,
      "gummi": 4269,
      "erklimmen": 4270,
      "unterschiedlichen": 4271,
      "absperrung": 4272,
      "knall": 4273,
      "speise": 4274,
      "serviert": 4275,
      "möglicherweise": 4276,
      "ufers": 4277,
      "redner": 4278,
      "plüscht": 4279,
      "flauschiger": 4280,
      "einkaufstasche": 4281,
      "sturm": 4282,
      "stolz": 4283,
      "sporter": 4284,
      "webstuhl": 4285,
      "freude": 4286,
      "lasso": 4287,
      "morgen": 4288,
      "technik": 4289,
      "schütteln": 4290,
      "2012": 4291,
      "langärmeligen": 4292,
      "ballerina": 4293,
      "bagger": 4294,
      "experiment": 4295,
      "swimming": 4296,
      "zylinder": 4297,
      "beachvolleyball": 4298,
      "toile": 4299,
      "quarterback": 4300,
      "spärlich": 4301,
      "kastanien": 4302,
      "darbietung": 4303,
      "swimmingpool": 4304,
      "agen": 4305,
      "asche": 4306,
      "axt": 4307,
      "bs": 4308,
      "bö": 4309,
      "bchen": 4310,
      "find": 4311,
      "fang": 4312,
      "fische": 4313,
      "och": 4314,
      "rum": 4315,
      "sho": 4316,
      "sumpf": 4317,
      "umen": 4318,
      "ucken": 4319,
      "uckt": 4320,
      "weinen": 4321,
      "wetter": 4322,
      "zün": 4323,
      "inie": 4324,
      "einfa": 4325,
      "einrichtung": 4326,
      "einkaufen": 4327,
      "einsamen": 4328,
      "erhält": 4329,
      "erreichen": 4330,
      "stiften": 4331,
      "schlo": 4332,
      "geba": 4333,
      "gefahren": 4334,
      "gedu": 4335,
      "gefolgt": 4336,
      "iel": 4337,
      "aufzug": 4338,
      "manns": 4339,
      "hre": 4340,
      "deten": 4341,
      "llinie": 4342,
      "tenni": 4343,
      "ichten": 4344,
      "bela": 4345,
      "bewal": 4346,
      "bestellen": 4347,
      "vortrag": 4348,
      "let": 4349,
      "ierung": 4350,
      "regner": 4351,
      "reklam": 4352,
      "hahn": 4353,
      "hohem": 4354,
      "sea": 4355,
      "set": 4356,
      "gehü": 4357,
      "lack": 4358,
      "lafen": 4359,
      "ballett": 4360,
      "pften": 4361,
      "pflo": 4362,
      "verletz": 4363,
      "grube": 4364,
      "unteren": 4365,
      "unterrichtet": 4366,
      "menschenansammlung": 4367,
      "iker": 4368,
      "schaulust": 4369,
      "führer": 4370,
      "zelten": 4371,
      "heran": 4372,
      "herkunft": 4373,
      "liege": 4374,
      "stap": 4375,
      "stativ": 4376,
      "sieg": 4377,
      "mast": 4378,
      "make": 4379,
      "kleidungs": 4380,
      "tackelt": 4381,
      "fertigen": 4382,
      "bauten": 4383,
      "bauwerk": 4384,
      "jeweil": 4385,
      "jeep": 4386,
      "schnellen": 4387,
      "schneeschuhen": 4388,
      "hochzu": 4389,
      "geschoben": 4390,
      "nachrichten": 4391,
      "nächt": 4392,
      "abgestellt": 4393,
      "abgebildet": 4394,
      "kegeln": 4395,
      "plate": 4396,
      "äng": 4397,
      "warm": 4398,
      "wieder": 4399,
      "nahen": 4400,
      "gitter": 4401,
      "finden": 4402,
      "fußballmannschaft": 4403,
      "ziellinie": 4404,
      "soll": 4405,
      "motorhaube": 4406,
      "seich": 4407,
      "rudern": 4408,
      "froren": 4409,
      "mobil": 4410,
      "zeitschriften": 4411,
      "lächelnden": 4412,
      "holzzaun": 4413,
      "festgebunden": 4414,
      "tags": 4415,
      "peace": 4416,
      "zeremon": 4417,
      "schneit": 4418,
      "käfig": 4419,
      "food": 4420,
      "musikgruppe": 4421,
      "bergsteiger": 4422,
      "schutzkleidung": 4423,
      "schutzausrüstung": 4424,
      "schminkt": 4425,
      "dosen": 4426,
      "kilt": 4427,
      "landstraße": 4428,
      "pierc": 4429,
      "schrän": 4430,
      "felsvorsprung": 4431,
      "scheinwerfer": 4432,
      "rücksitz": 4433,
      "rückseite": 4434,
      "garage": 4435,
      "kratzt": 4436,
      "türki": 4437,
      "läufern": 4438,
      "lachende": 4439,
      "reparatur": 4440,
      "qua": 4441,
      "quad": 4442,
      "wanderweg": 4443,
      "öffentlichkeit": 4444,
      "ruhigem": 4445,
      "farbiger": 4446,
      "herrn": 4447,
      "ziegelwand": 4448,
      "ziegelsteinen": 4449,
      "bildes": 4450,
      "bildern": 4451,
      "masken": 4452,
      "laut": 4453,
      "partie": 4454,
      "gabe": 4455,
      "afrikanischen": 4456,
      "mülleimer": 4457,
      "bootes": 4458,
      "silberne": 4459,
      "ebenfalls": 4460,
      "plane": 4461,
      "flieger": 4462,
      "kauert": 4463,
      "tainer": 4464,
      "overalls": 4465,
      "nasser": 4466,
      "fliegenden": 4467,
      "ausgestreckt": 4468,
      "trifft": 4469,
      "bruder": 4470,
      "windhund": 4471,
      "speer": 4472,
      "staubigen": 4473,
      "orientalisch": 4474,
      "meisten": 4475,
      "blech": 4476,
      "fasst": 4477,
      "gitarristen": 4478,
      "essensstand": 4479,
      "wolke": 4480,
      "lagerfeuer": 4481,
      "burgunder": 4482,
      "amüsiert": 4483,
      "fröhlich": 4484,
      "bindet": 4485,
      "blondhaarige": 4486,
      "kartons": 4487,
      "namensschild": 4488,
      "vergnügt": 4489,
      "klappstuhl": 4490,
      "freizeitpark": 4491,
      "größeren": 4492,
      "stelzen": 4493,
      "springer": 4494,
      "kurzem": 4495,
      "schlendert": 4496,
      "aufgeregt": 4497,
      "kräfte": 4498,
      "pizza": 4499,
      "fremden": 4500,
      "verzierten": 4501,
      "notiz": 4502,
      "galerie": 4503,
      "ungewöhnlichen": 4504,
      "halskette": 4505,
      "heruntergekommen": 4506,
      "nchron": 4507,
      "synchron": 4508,
      "übergewichtiger": 4509,
      "verbunden": 4510,
      "obdachloser": 4511,
      "college": 4512,
      "niedrigen": 4513,
      "wilden": 4514,
      "eingeschlafen": 4515,
      "mexikan": 4516,
      "entfernung": 4517,
      "kabine": 4518,
      "aufgereiht": 4519,
      "histor": 4520,
      "relig": 4521,
      "sattel": 4522,
      "friedens": 4523,
      "erzeugnisse": 4524,
      "unordentlichen": 4525,
      "angebracht": 4526,
      "staubsauger": 4527,
      "leggings": 4528,
      "regnerischen": 4529,
      "reklameta": 4530,
      "zeremonie": 4531,
      "10": 4532,
      "ata": 4533,
      "bzw": 4534,
      "dt": 4535,
      "diert": 4536,
      "dran": 4537,
      "ed": 4538,
      "ev": 4539,
      "fein": 4540,
      "fan": 4541,
      "gon": 4542,
      "ging": 4543,
      "gaben": 4544,
      "girl": 4545,
      "harm": 4546,
      "io": 4547,
      "iö": 4548,
      "iden": 4549,
      "jet": 4550,
      "lig": 4551,
      "lücklich": 4552,
      "misch": 4553,
      "ous": 4554,
      "pt": 4555,
      "pä": 4556,
      "pern": 4557,
      "que": 4558,
      "rit": 4559,
      "si": 4560,
      "smart": 4561,
      "sims": 4562,
      "ult": 4563,
      "xy": 4564,
      "yer": 4565,
      "zz": 4566,
      "zone": 4567,
      "zitr": 4568,
      "üge": 4569,
      "üte": 4570,
      "iner": 4571,
      "erhö": 4572,
      "erhobenen": 4573,
      "chir": 4574,
      "chip": 4575,
      "anti": 4576,
      "anhaben": 4577,
      "eigen": 4578,
      "sty": 4579,
      "stimm": 4580,
      "stumpf": 4581,
      "schel": 4582,
      "gebe": 4583,
      "getro": 4584,
      "gefangen": 4585,
      "gefä": 4586,
      "gesetz": 4587,
      "geflo": 4588,
      "geöffnet": 4589,
      "gespannt": 4590,
      "itor": 4591,
      "aufgaben": 4592,
      "arr": 4593,
      "manö": 4594,
      "gre": 4595,
      "klame": 4596,
      "cks": 4597,
      "mäht": 4598,
      "diesen": 4599,
      "denkt": 4600,
      "rode": 4601,
      "betreten": 4602,
      "besucht": 4603,
      "ammen": 4604,
      "helle": 4605,
      "heller": 4606,
      "reisen": 4607,
      "vorführt": 4608,
      "lecker": 4609,
      "ellten": 4610,
      "elmo": 4611,
      "spielers": 4612,
      "hawa": 4613,
      "hallo": 4614,
      "fackel": 4615,
      "unglücklich": 4616,
      "umringt": 4617,
      "sem": 4618,
      "gehstock": 4619,
      "lädt": 4620,
      "tru": 4621,
      "lab": 4622,
      "etwa": 4623,
      "ausgezogen": 4624,
      "ausländ": 4625,
      "pfan": 4626,
      "überprüfen": 4627,
      "gelangen": 4628,
      "verwir": 4629,
      "ween": 4630,
      "wegen": 4631,
      "mechan": 4632,
      "kohol": 4633,
      "alkohol": 4634,
      "bron": 4635,
      "wasserbecken": 4636,
      "wasserfläche": 4637,
      "hinterbeinen": 4638,
      "bären": 4639,
      "bäcker": 4640,
      "hervor": 4641,
      "staffel": 4642,
      "sage": 4643,
      "sade": 4644,
      "strie": 4645,
      "old": 4646,
      "arke": 4647,
      "angehalten": 4648,
      "angemalt": 4649,
      "angestel": 4650,
      "day": 4651,
      "dahinter": 4652,
      "papa": 4653,
      "chef": 4654,
      "wahl": 4655,
      "indigkeit": 4656,
      "stecken": 4657,
      "pop": 4658,
      "pose": 4659,
      "ierende": 4660,
      "flu": 4661,
      "strands": 4662,
      "abteil": 4663,
      "warmen": 4664,
      "hüpf": 4665,
      "nagel": 4666,
      "gleis": 4667,
      "steile": 4668,
      "helfer": 4669,
      "lernen": 4670,
      "wagens": 4671,
      "fahrenden": 4672,
      "loh": 4673,
      "logo": 4674,
      "lokal": 4675,
      "straßenarbeiter": 4676,
      "straßenseite": 4677,
      "straßenmusiker": 4678,
      "karto": 4679,
      "sandhügel": 4680,
      "seichten": 4681,
      "sky": 4682,
      "ford": 4683,
      "forscher": 4684,
      "frischen": 4685,
      "schützen": 4686,
      "schützt": 4687,
      "skateboards": 4688,
      "holzkonstruktion": 4689,
      "schluss": 4690,
      "musku": 4691,
      "darin": 4692,
      "daran": 4693,
      "ärt": 4694,
      "steintreppe": 4695,
      "räger": 4696,
      "hosenträger": 4697,
      "athle": 4698,
      "betrachter": 4699,
      "feuerwerk": 4700,
      "dritten": 4701,
      "kenn": 4702,
      "fenstern": 4703,
      "digt": 4704,
      "tanzfläche": 4705,
      "univers": 4706,
      "knö": 4707,
      "regenmantel": 4708,
      "öffnen": 4709,
      "schreien": 4710,
      "telefonieren": 4711,
      "schritt": 4712,
      "liegende": 4713,
      "zauns": 4714,
      "flussufer": 4715,
      "spaziert": 4716,
      "felsbrocken": 4717,
      "uell": 4718,
      "intervie": 4719,
      "bud": 4720,
      "busch": 4721,
      "scheinlich": 4722,
      "akten": 4723,
      "einkaufstüten": 4724,
      "orangefarbenes": 4725,
      "garn": 4726,
      "kämpft": 4727,
      "teilt": 4728,
      "fält": 4729,
      "haut": 4730,
      "wenn": 4731,
      "uniformierte": 4732,
      "uniformierter": 4733,
      "aussehendes": 4734,
      "rasenfläche": 4735,
      "rasenmäher": 4736,
      "schürzen": 4737,
      "rollers": 4738,
      "vorderen": 4739,
      "tiges": 4740,
      "phone": 4741,
      "schoko": 4742,
      "stiefel": 4743,
      "beleuchtet": 4744,
      "hub": 4745,
      "gegnerische": 4746,
      "zeichnen": 4747,
      "weiteren": 4748,
      "hängender": 4749,
      "kampfsportler": 4750,
      "flugzeugs": 4751,
      "schlammigen": 4752,
      "flügel": 4753,
      "traditionelle": 4754,
      "rasier": 4755,
      "bedienen": 4756,
      "treppenhaus": 4757,
      "passiert": 4758,
      "gepflasterte": 4759,
      "wärmen": 4760,
      "tätowierte": 4761,
      "hamburger": 4762,
      "röhre": 4763,
      "schwestern": 4764,
      "irgendwo": 4765,
      "glatze": 4766,
      "chinesische": 4767,
      "angezogener": 4768,
      "völlig": 4769,
      "hinderni": 4770,
      "fischernetz": 4771,
      "kapuzenpullover": 4772,
      "gläser": 4773,
      "ähnlich": 4774,
      "außenbereich": 4775,
      "pullunder": 4776,
      "sicherheitsweste": 4777,
      "würde": 4778,
      "schachteln": 4779,
      "fassade": 4780,
      "vergnügen": 4781,
      "entfernen": 4782,
      "elektrischen": 4783,
      "horiz": 4784,
      "protestiert": 4785,
      "verteidiger": 4786,
      "text": 4787,
      "tages": 4788,
      "hübschen": 4789,
      "hübsche": 4790,
      "binden": 4791,
      "dritter": 4792,
      "wildwasser": 4793,
      "geschnittenen": 4794,
      "akust": 4795,
      "camping": 4796,
      "stromschnellen": 4797,
      "container": 4798,
      "segelboot": 4799,
      "musikinstrumente": 4800,
      "schneebedeckte": 4801,
      "schneebedecktes": 4802,
      "geöffne": 4803,
      "begeisterung": 4804,
      "beamte": 4805,
      "hohes": 4806,
      "formeller": 4807,
      "passagiere": 4808,
      "aufgereg": 4809,
      "bauernmarkt": 4810,
      "kontroll": 4811,
      "kontrolle": 4812,
      "attraktive": 4813,
      "probieren": 4814,
      "befahrenen": 4815,
      "fernseher": 4816,
      "erleuchteten": 4817,
      "pilot": 4818,
      "geschwindigkeit": 4819,
      "überdachten": 4820,
      "patienten": 4821,
      "dribbelt": 4822,
      "irokesenschnitt": 4823,
      "putzer": 4824,
      "späht": 4825,
      "wakeboard": 4826,
      "perücke": 4827,
      "kulisse": 4828,
      "kneipe": 4829,
      "porträt": 4830,
      "bedruckten": 4831,
      "flipflo": 4832,
      "flusses": 4833,
      "münz": 4834,
      "langärml": 4835,
      "färb": 4836,
      "hoodie": 4837,
      "bohrmaschine": 4838,
      "fußballtrikot": 4839,
      "nachbarschaft": 4840,
      "karohemd": 4841,
      "telefonzelle": 4842,
      "plüschtier": 4843,
      "tennisplatz": 4844,
      "bewaldeten": 4845,
      "jeweils": 4846,
      "tagsüber": 4847,
      "heruntergekommenen": 4848,
      "religiö": 4849,
      "reklametafel": 4850,
      "harmon": 4851,
      "chirur": 4852,
      "getroffen": 4853,
      "hawai": 4854,
      "halloween": 4855,
      "flipflops": 4856,
      "ah": 4857,
      "ale": 4858,
      "air": 4859,
      "aller": 4860,
      "aquar": 4861,
      "breiten": 4862,
      "cy": 4863,
      "ddy": 4864,
      "got": 4865,
      "ktem": 4866,
      "kuss": 4867,
      "ms": 4868,
      "mun": 4869,
      "mut": 4870,
      "massen": 4871,
      "marm": 4872,
      "not": 4873,
      "nungen": 4874,
      "of": 4875,
      "opol": 4876,
      "osau": 4877,
      "pum": 4878,
      "put": 4879,
      "pinsel": 4880,
      "siv": 4881,
      "tman": 4882,
      "tam": 4883,
      "trot": 4884,
      "ud": 4885,
      "vr": 4886,
      "wend": 4887,
      "wischen": 4888,
      "wippe": 4889,
      "zern": 4890,
      "ügel": 4891,
      "int": 4892,
      "information": 4893,
      "eng": 4894,
      "endet": 4895,
      "einiger": 4896,
      "eingewickelt": 4897,
      "erzie": 4898,
      "chel": 4899,
      "ansehen": 4900,
      "uns": 4901,
      "unken": 4902,
      "eiter": 4903,
      "ston": 4904,
      "stach": 4905,
      "schon": 4906,
      "schlan": 4907,
      "scheln": 4908,
      "schals": 4909,
      "gesp": 4910,
      "gespielt": 4911,
      "gebü": 4912,
      "geste": 4913,
      "getrei": 4914,
      "gefroren": 4915,
      "arch": 4916,
      "mitspieler": 4917,
      "raus": 4918,
      "ltet": 4919,
      "spra": 4920,
      "teddy": 4921,
      "lly": 4922,
      "gren": 4923,
      "ichte": 4924,
      "dieselbe": 4925,
      "zuge": 4926,
      "zuhört": 4927,
      "zuhause": 4928,
      "rosen": 4929,
      "blut": 4930,
      "beauf": 4931,
      "beten": 4932,
      "betet": 4933,
      "beteil": 4934,
      "bestehend": 4935,
      "befind": 4936,
      "benen": 4937,
      "beißen": 4938,
      "bahnen": 4939,
      "batman": 4940,
      "heel": 4941,
      "itzen": 4942,
      "vorsich": 4943,
      "lego": 4944,
      "reklame": 4945,
      "spielsachen": 4946,
      "ßelt": 4947,
      "urn": 4948,
      "gert": 4949,
      "ppel": 4950,
      "hocken": 4951,
      "schwarm": 4952,
      "ballet": 4953,
      "ethn": 4954,
      "fahrzeugen": 4955,
      "boss": 4956,
      "body": 4957,
      "bockenden": 4958,
      "esstisch": 4959,
      "verschrän": 4960,
      "unterhemd": 4961,
      "unterhaltung": 4962,
      "grünf": 4963,
      "staben": 4964,
      "tisches": 4965,
      "olen": 4966,
      "mais": 4967,
      "matra": 4968,
      "masten": 4969,
      "lichter": 4970,
      "toten": 4971,
      "taten": 4972,
      "pap": 4973,
      "indu": 4974,
      "indien": 4975,
      "fußboden": 4976,
      "wirt": 4977,
      "fahrradhelm": 4978,
      "kamm": 4979,
      "stütz": 4980,
      "flop": 4981,
      "flammen": 4982,
      "versuch": 4983,
      "zugs": 4984,
      "hochha": 4985,
      "hochstuhl": 4986,
      "hochsprung": 4987,
      "gescho": 4988,
      "geschrie": 4989,
      "nachmittag": 4990,
      "abgest": 4991,
      "absol": 4992,
      "absatz": 4993,
      "parken": 4994,
      "kopfstein": 4995,
      "rührt": 4996,
      "küsten": 4997,
      "kühl": 4998,
      "ware": 4999,
      "warte": 5000,
      "hüfte": 5001,
      "schnu": 5002,
      "schnor": 5003,
      "skatet": 5004,
      "schieß": 5005,
      "stadtpark": 5006,
      "ziegen": 5007,
      "graues": 5008,
      "anzahl": 5009,
      "rothaariger": 5010,
      "losen": 5011,
      "lophon": 5012,
      "pferder": 5013,
      "arbeitern": 5014,
      "sonnenlicht": 5015,
      "mert": 5016,
      "straßenfest": 5017,
      "straßenszene": 5018,
      "soon": 5019,
      "soeben": 5020,
      "bahnstation": 5021,
      "karierter": 5022,
      "sandburg": 5023,
      "tresen": 5024,
      "wache": 5025,
      "wachmann": 5026,
      "gewinnen": 5027,
      "mopp": 5028,
      "baumstä": 5029,
      "baumstumpf": 5030,
      "sporthalle": 5031,
      "holzbrett": 5032,
      "perspe": 5033,
      "schlü": 5034,
      "schlucht": 5035,
      "stoß": 5036,
      "darüber": 5037,
      "ärmel": 5038,
      "bürstet": 5039,
      "pelt": 5040,
      "zerr": 5041,
      "steinbank": 5042,
      "henden": 5043,
      "walmart": 5044,
      "gebir": 5045,
      "baseballfeld": 5046,
      "gestreifte": 5047,
      "hellgrünen": 5048,
      "polster": 5049,
      "kommun": 5050,
      "feuerstelle": 5051,
      "tionen": 5052,
      "spielzeugauto": 5053,
      "basketballfeld": 5054,
      "basketballkorb": 5055,
      "dien": 5056,
      "dicken": 5057,
      "paras": 5058,
      "sägt": 5059,
      "säcke": 5060,
      "dunkelheit": 5061,
      "footballspiel": 5062,
      "street": 5063,
      "schmink": 5064,
      "schmalen": 5065,
      "kanad": 5066,
      "buchstaben": 5067,
      "domin": 5068,
      "brünet": 5069,
      "leich": 5070,
      "handys": 5071,
      "hörer": 5072,
      "metallstange": 5073,
      "schöner": 5074,
      "rockband": 5075,
      "aktion": 5076,
      "betonmauer": 5077,
      "hockeyspiel": 5078,
      "taube": 5079,
      "kämpfer": 5080,
      "umgebenen": 5081,
      "fernsehen": 5082,
      "fernrohr": 5083,
      "kerze": 5084,
      "randstein": 5085,
      "wettei": 5086,
      "nackte": 5087,
      "teenagern": 5088,
      "krug": 5089,
      "kopfbedeckungen": 5090,
      "mannschafts": 5091,
      "vollstän": 5092,
      "volleyballspieler": 5093,
      "ruhig": 5094,
      "nummern": 5095,
      "ziegelbau": 5096,
      "ziegelgebäude": 5097,
      "laufband": 5098,
      "zäun": 5099,
      "backflip": 5100,
      "gleichgewicht": 5101,
      "elekt": 5102,
      "brautjung": 5103,
      "möchte": 5104,
      "löser": 5105,
      "löwen": 5106,
      "geldautomaten": 5107,
      "afrikaner": 5108,
      "blaskapelle": 5109,
      "weiterer": 5110,
      "heraushängender": 5111,
      "jogger": 5112,
      "jogging": 5113,
      "afroamerikanisches": 5114,
      "kajaks": 5115,
      "kajakfahrer": 5116,
      "spiegelbild": 5117,
      "marathonläufer": 5118,
      "fliege": 5119,
      "saugt": 5120,
      "seifenblase": 5121,
      "kaffeet": 5122,
      "waschmaschine": 5123,
      "tourist": 5124,
      "gießen": 5125,
      "kreuzten": 5126,
      "sub": 5127,
      "backsteinmauer": 5128,
      "irgendeinem": 5129,
      "angezogene": 5130,
      "vögeln": 5131,
      "frischem": 5132,
      "schlafzimmer": 5133,
      "projektor": 5134,
      "monopol": 5135,
      "präch": 5136,
      "haltend": 5137,
      "windhunde": 5138,
      "sicherheitswesten": 5139,
      "crew": 5140,
      "tathle": 5141,
      "kompletter": 5142,
      "dinosau": 5143,
      "orientalischer": 5144,
      "meister": 5145,
      "meißelt": 5146,
      "gewandt": 5147,
      "schwere": 5148,
      "faszin": 5149,
      "punk": 5150,
      "schiffs": 5151,
      "dekoriert": 5152,
      "geräte": 5153,
      "mehrfarbigen": 5154,
      "produkt": 5155,
      "aufblasbare": 5156,
      "hängematte": 5157,
      "fußgängerübergang": 5158,
      "wildnis": 5159,
      "erklimmt": 5160,
      "schwenken": 5161,
      "sommertag": 5162,
      "rugbyspieler": 5163,
      "gürteln": 5164,
      "ordnung": 5165,
      "polohemd": 5166,
      "jockeys": 5167,
      "zahnbürste": 5168,
      "trocknet": 5169,
      "dünnen": 5170,
      "ozeans": 5171,
      "spült": 5172,
      "servieren": 5173,
      "matsch": 5174,
      "objekte": 5175,
      "objektiv": 5176,
      "trockenen": 5177,
      "begeistert": 5178,
      "legerer": 5179,
      "europa": 5180,
      "schlendern": 5181,
      "brennende": 5182,
      "timer": 5183,
      "times": 5184,
      "klammert": 5185,
      "hotdog": 5186,
      "leitung": 5187,
      "wahrscheinlich": 5188,
      "schlittschuh": 5189,
      "stofftier": 5190,
      "probiert": 5191,
      "supermarkt": 5192,
      "schrauber": 5193,
      "schnappt": 5194,
      "blöcken": 5195,
      "wartungs": 5196,
      "altmodischen": 5197,
      "druckt": 5198,
      "hydran": 5199,
      "ausgebrei": 5200,
      "handwerker": 5201,
      "faulenzen": 5202,
      "demonstranten": 5203,
      "rosaroten": 5204,
      "profession": 5205,
      "elektronischen": 5206,
      "breit": 5207,
      "smoking": 5208,
      "denkmal": 5209,
      "geschmückt": 5210,
      "volks": 5211,
      "anweisungen": 5212,
      "gelegenen": 5213,
      "rostigen": 5214,
      "strumpfhose": 5215,
      "strümpfen": 5216,
      "ladefläche": 5217,
      "verschwommen": 5218,
      "wassersprenger": 5219,
      "wollmütze": 5220,
      "piraten": 5221,
      "zündet": 5222,
      "schloss": 5223,
      "gehüllt": 5224,
      "event": 5225,
      "xylophon": 5226,
      "geflochten": 5227,
      "oldtimer": 5228,
      "muskulöser": 5229,
      "hosenträgern": 5230,
      "rollerska": 5231,
      "hubschrauber": 5232,
      "horizont": 5233,
      "harmonika": 5234,
      "marmor": 5235,
      "getreide": 5236,
      "vorsichtig": 5237,
      "verschränkten": 5238,
      "grünfläche": 5239,
      "flops": 5240,
      "perspektive": 5241,
      "monopoly": 5242,
      "hydranten": 5243,
      "ai": 5244,
      "ack": 5245,
      "allen": 5246,
      "bh": 5247,
      "barke": 5248,
      "cr": 5249,
      "dsch": 5250,
      "eper": 5251,
      "ftet": 5252,
      "fiel": 5253,
      "glet": 5254,
      "hte": 5255,
      "hasen": 5256,
      "ipo": 5257,
      "kim": 5258,
      "kunde": 5259,
      "lach": 5260,
      "lot": 5261,
      "mte": 5262,
      "maus": 5263,
      "opar": 5264,
      "pur": 5265,
      "run": 5266,
      "rier": 5267,
      "sym": 5268,
      "squar": 5269,
      "tinten": 5270,
      "uen": 5271,
      "ure": 5272,
      "vis": 5273,
      "wort": 5274,
      "zeln": 5275,
      "zügen": 5276,
      "zess": 5277,
      "äum": 5278,
      "inchen": 5279,
      "inhalt": 5280,
      "eindru": 5281,
      "ereignis": 5282,
      "anze": 5283,
      "anzusehen": 5284,
      "angeln": 5285,
      "une": 5286,
      "unk": 5287,
      "ungel": 5288,
      "unbekann": 5289,
      "steiner": 5290,
      "sters": 5291,
      "schro": 5292,
      "schär": 5293,
      "schick": 5294,
      "schanze": 5295,
      "getragen": 5296,
      "geflie": 5297,
      "gespritzt": 5298,
      "gebaut": 5299,
      "gefärb": 5300,
      "gepolster": 5301,
      "ite": 5302,
      "itischen": 5303,
      "ies": 5304,
      "aufeinander": 5305,
      "aufdruck": 5306,
      "aufkle": 5307,
      "aufgenommen": 5308,
      "ono": 5309,
      "dest": 5310,
      "spinn": 5311,
      "oreiter": 5312,
      "gramm": 5313,
      "gress": 5314,
      "kler": 5315,
      "cktem": 5316,
      "terial": 5317,
      "genau": 5318,
      "ram": 5319,
      "ragen": 5320,
      "rami": 5321,
      "zubereiten": 5322,
      "zurecht": 5323,
      "zutaten": 5324,
      "zweite": 5325,
      "ehe": 5326,
      "denken": 5327,
      "rolle": 5328,
      "beschm": 5329,
      "besser": 5330,
      "besetz": 5331,
      "beför": 5332,
      "bebalken": 5333,
      "begriff": 5334,
      "bewohner": 5335,
      "beeindru": 5336,
      "bergl": 5337,
      "baste": 5338,
      "ney": 5339,
      "neun": 5340,
      "voran": 5341,
      "leopar": 5342,
      "schwier": 5343,
      "ierend": 5344,
      "rest": 5345,
      "regelt": 5346,
      "spielzeugen": 5347,
      "hacken": 5348,
      "hackt": 5349,
      "urlaub": 5350,
      "kinn": 5351,
      "schenkt": 5352,
      "ump": 5353,
      "umzäunten": 5354,
      "segelt": 5355,
      "seni": 5356,
      "trü": 5357,
      "trut": 5358,
      "truck": 5359,
      "trüben": 5360,
      "ladung": 5361,
      "stration": 5362,
      "strahl": 5363,
      "tippt": 5364,
      "fahrers": 5365,
      "pfeln": 5366,
      "pfoten": 5367,
      "bol": 5368,
      "bohrt": 5369,
      "hinweg": 5370,
      "übersä": 5371,
      "anderem": 5372,
      "verdi": 5373,
      "versteckt": 5374,
      "hema": 5375,
      "weder": 5376,
      "kos": 5377,
      "kost": 5378,
      "radfahren": 5379,
      "albern": 5380,
      "entweder": 5381,
      "bren": 5382,
      "wasserstraße": 5383,
      "stehendes": 5384,
      "hinteren": 5385,
      "kappen": 5386,
      "kabel": 5387,
      "kathe": 5388,
      "kabeln": 5389,
      "spielenden": 5390,
      "herzen": 5391,
      "handtaschen": 5392,
      "state": 5393,
      "stall": 5394,
      "statur": 5395,
      "salat": 5396,
      "strä": 5397,
      "strich": 5398,
      "ollt": 5399,
      "material": 5400,
      "lichtern": 5401,
      "angefeuert": 5402,
      "desig": 5403,
      "design": 5404,
      "fertigt": 5405,
      "packen": 5406,
      "waffen": 5407,
      "waffeln": 5408,
      "haarschnitt": 5409,
      "stücken": 5410,
      "pul": 5411,
      "podest": 5412,
      "schneeball": 5413,
      "hochgehoben": 5414,
      "basken": 5415,
      "nachricht": 5416,
      "nägel": 5417,
      "igol": 5418,
      "änzern": 5419,
      "nav": 5420,
      "nadel": 5421,
      "tempel": 5422,
      "kameramann": 5423,
      "hundespielzeug": 5424,
      "wandmaler": 5425,
      "stadtszene": 5426,
      "ziege": 5427,
      "zielt": 5428,
      "coach": 5429,
      "coca": 5430,
      "collie": 5431,
      "straßenrennen": 5432,
      "kara": 5433,
      "jeansshorts": 5434,
      "ffet": 5435,
      "kaufhaus": 5436,
      "skim": 5437,
      "fran": 5438,
      "frische": 5439,
      "laufenden": 5440,
      "zeitungen": 5441,
      "pert": 5442,
      "muss": 5443,
      "zeria": 5444,
      "räumen": 5445,
      "konfet": 5446,
      "kunstgalerie": 5447,
      "armband": 5448,
      "käse": 5449,
      "eislaufen": 5450,
      "eisschnell": 5451,
      "felsens": 5452,
      "kult": 5453,
      "badehosen": 5454,
      "badekappe": 5455,
      "freut": 5456,
      "footballfeld": 5457,
      "pullovern": 5458,
      "streut": 5459,
      "kanus": 5460,
      "kaninchen": 5461,
      "down": 5462,
      "brettern": 5463,
      "leitet": 5464,
      "innenraum": 5465,
      "innenhof": 5466,
      "werkzeugen": 5467,
      "torbogen": 5468,
      "felsklippe": 5469,
      "felsblock": 5470,
      "felsformation": 5471,
      "lilafarbener": 5472,
      "interagieren": 5473,
      "buckeln": 5474,
      "buffet": 5475,
      "riesen": 5476,
      "ladens": 5477,
      "betonstufen": 5478,
      "tauziehen": 5479,
      "krab": 5480,
      "krabbelt": 5481,
      "fäu": 5482,
      "fässer": 5483,
      "kostümierte": 5484,
      "nackter": 5485,
      "kehren": 5486,
      "zigarre": 5487,
      "volleyballspiel": 5488,
      "wanderung": 5489,
      "fischmarkt": 5490,
      "training": 5491,
      "winterjacke": 5492,
      "wintertag": 5493,
      "violetter": 5494,
      "beginnen": 5495,
      "beginn": 5496,
      "linke": 5497,
      "blazer": 5498,
      "stiel": 5499,
      "lebensmittelmarkt": 5500,
      "beleuchte": 5501,
      "möwen": 5502,
      "langes": 5503,
      "farbenfrohe": 5504,
      "huhn": 5505,
      "geldbeutel": 5506,
      "selben": 5507,
      "seligkeiten": 5508,
      "müllcontainer": 5509,
      "schülern": 5510,
      "schülerin": 5511,
      "vogelperspektive": 5512,
      "wohnung": 5513,
      "weiblichen": 5514,
      "plant": 5515,
      "tankstelle": 5516,
      "kaukas": 5517,
      "aufgesetz": 5518,
      "aufgeblasen": 5519,
      "militärangehör": 5520,
      "gokart": 5521,
      "wüsten": 5522,
      "schlafendes": 5523,
      "backsteinstraße": 5524,
      "cheerleadern": 5525,
      "mitgliedern": 5526,
      "schwebebalken": 5527,
      "irgendeiner": 5528,
      "glückliche": 5529,
      "geländefahrzeug": 5530,
      "filz": 5531,
      "tellern": 5532,
      "videokamera": 5533,
      "chinesischer": 5534,
      "nied": 5535,
      "skulpturen": 5536,
      "schlafend": 5537,
      "mix": 5538,
      "montur": 5539,
      "monitor": 5540,
      "gesichtsausdruck": 5541,
      "bläser": 5542,
      "trio": 5543,
      "stürzten": 5544,
      "säubert": 5545,
      "cheerleaderin": 5546,
      "früh": 5547,
      "khakifarbener": 5548,
      "transporter": 5549,
      "neuen": 5550,
      "messe": 5551,
      "ringkampf": 5552,
      "gesäumte": 5553,
      "pipe": 5554,
      "schwertern": 5555,
      "kartenspiel": 5556,
      "broschü": 5557,
      "schleift": 5558,
      "produkten": 5559,
      "regnet": 5560,
      "braunhaariges": 5561,
      "kutsche": 5562,
      "hübsch": 5563,
      "digital": 5564,
      "fröhliche": 5565,
      "barfüßiger": 5566,
      "palme": 5567,
      "startlinie": 5568,
      "blondhaariger": 5569,
      "deutsche": 5570,
      "motocrossfahrer": 5571,
      "musikinstrument": 5572,
      "musikinstrumenten": 5573,
      "bleiben": 5574,
      "bleibt": 5575,
      "demonstration": 5576,
      "klappstühlen": 5577,
      "pony": 5578,
      "beamter": 5579,
      "laterne": 5580,
      "fried": 5581,
      "schmetterling": 5582,
      "passagieren": 5583,
      "europä": 5584,
      "ganzen": 5585,
      "brennenden": 5586,
      "kümmern": 5587,
      "warnweste": 5588,
      "ruderboot": 5589,
      "apple": 5590,
      "pizzeria": 5591,
      "plüsch": 5592,
      "schließ": 5593,
      "packung": 5594,
      "steuert": 5595,
      "einkaufstaschen": 5596,
      "hispan": 5597,
      "nassem": 5598,
      "sortiert": 5599,
      "gerichtet": 5600,
      "schlittschuhen": 5601,
      "sorg": 5602,
      "schrauben": 5603,
      "befahrene": 5604,
      "dekorativ": 5605,
      "highschool": 5606,
      "dirigiert": 5607,
      "begleiter": 5608,
      "ausgebreitet": 5609,
      "indianer": 5610,
      "faulenzt": 5611,
      "pyj": 5612,
      "pyrami": 5613,
      "tropischen": 5614,
      "itäten": 5615,
      "gemusterten": 5616,
      "reflektierenden": 5617,
      "zauber": 5618,
      "einheimischer": 5619,
      "gefleckter": 5620,
      "artikel": 5621,
      "ottchen": 5622,
      "wassermelonen": 5623,
      "modernen": 5624,
      "schützern": 5625,
      "bananen": 5626,
      "mcdonalds": 5627,
      "jenga": 5628,
      "storte": 5629,
      "habseligkeiten": 5630,
      "pfeife": 5631,
      "zebrastreifen": 5632,
      "maskottchen": 5633,
      "stammeskleidung": 5634,
      "toiletten": 5635,
      "ochsen": 5636,
      "einfachen": 5637,
      "hochzuklettern": 5638,
      "seichtem": 5639,
      "türkisen": 5640,
      "quadra": 5641,
      "burgunderroten": 5642,
      "historischen": 5643,
      "friedenszeichen": 5644,
      "smartphone": 5645,
      "zitronen": 5646,
      "manövr": 5647,
      "rodeoreiter": 5648,
      "labrad": 5649,
      "pfannen": 5650,
      "staffelei": 5651,
      "popcor": 5652,
      "interview": 5653,
      "aktentasche": 5654,
      "schokoladen": 5655,
      "hindernispar": 5656,
      "aquarium": 5657,
      "trottet": 5658,
      "stachel": 5659,
      "industrie": 5660,
      "hochhackigen": 5661,
      "absolv": 5662,
      "baumstämmen": 5663,
      "leichtathle": 5664,
      "elektro": 5665,
      "brautjungfern": 5666,
      "kaffeetasse": 5667,
      "subway": 5668,
      "ausgebreiteten": 5669,
      "geflochtenen": 5670,
      "barkeeper": 5671,
      "dschungel": 5672,
      "gletscher": 5673,
      "square": 5674,
      "berglandschaft": 5675,
      "kathedra": 5676,
      "baskenmütze": 5677,
      "wandmalerei": 5678,
      "konfetti": 5679,
      "00": 5680,
      "11": 5681,
      "asch": 5682,
      "aschen": 5683,
      "ail": 5684,
      "atem": 5685,
      "ation": 5686,
      "bauf": 5687,
      "bot": 5688,
      "butter": 5689,
      "can": 5690,
      "cur": 5691,
      "dam": 5692,
      "dick": 5693,
      "fort": 5694,
      "funden": 5695,
      "föhn": 5696,
      "gy": 5697,
      "gten": 5698,
      "gän": 5699,
      "hmarkt": 5700,
      "illen": 5701,
      "izie": 5702,
      "ive": 5703,
      "jü": 5704,
      "keine": 5705,
      "kko": 5706,
      "kus": 5707,
      "kno": 5708,
      "llte": 5709,
      "liz": 5710,
      "lker": 5711,
      "mp": 5712,
      "mbie": 5713,
      "ny": 5714,
      "nten": 5715,
      "nasen": 5716,
      "pts": 5717,
      "prin": 5718,
      "ruft": 5719,
      "ris": 5720,
      "raufen": 5721,
      "ritt": 5722,
      "sign": 5723,
      "sms": 5724,
      "ttet": 5725,
      "thema": 5726,
      "tänzern": 5727,
      "van": 5728,
      "wheel": 5729,
      "zet": 5730,
      "zent": 5731,
      "ßten": 5732,
      "öst": 5733,
      "üpp": 5734,
      "ino": 5735,
      "inger": 5736,
      "inette": 5737,
      "enung": 5738,
      "einde": 5739,
      "ero": 5740,
      "erzä": 5741,
      "erwischt": 5742,
      "erreicht": 5743,
      "chem": 5744,
      "chco": 5745,
      "chine": 5746,
      "anschaut": 5747,
      "anschauen": 5748,
      "ungt": 5749,
      "untr": 5750,
      "unaufger": 5751,
      "eim": 5752,
      "stimmt": 5753,
      "still": 5754,
      "schrä": 5755,
      "schlossen": 5756,
      "gehe": 5757,
      "gepf": 5758,
      "gestell": 5759,
      "itte": 5760,
      "undern": 5761,
      "aufhat": 5762,
      "aufschlag": 5763,
      "aufrecht": 5764,
      "aufwärmen": 5765,
      "arat": 5766,
      "desten": 5767,
      "spi": 5768,
      "spas": 5769,
      "spla": 5770,
      "ore": 5771,
      "organ": 5772,
      "klass": 5773,
      "ckern": 5774,
      "gendet": 5775,
      "ichtet": 5776,
      "rally": 5777,
      "imate": 5778,
      "zuhören": 5779,
      "denschaft": 5780,
      "bligen": 5781,
      "betr": 5782,
      "bewa": 5783,
      "beson": 5784,
      "bestellt": 5785,
      "beschä": 5786,
      "besuchen": 5787,
      "befra": 5788,
      "beendet": 5789,
      "mente": 5790,
      "ami": 5791,
      "ampe": 5792,
      "amboss": 5793,
      "beigen": 5794,
      "batik": 5795,
      "nev": 5796,
      "hebe": 5797,
      "head": 5798,
      "vorbereit": 5799,
      "vorwärts": 5800,
      "vorles": 5801,
      "leer": 5802,
      "lehrt": 5803,
      "letzt": 5804,
      "schweren": 5805,
      "elf": 5806,
      "nern": 5807,
      "spielzeuge": 5808,
      "spielmanns": 5809,
      "haken": 5810,
      "ßes": 5811,
      "fackeln": 5812,
      "gere": 5813,
      "gerah": 5814,
      "hämmer": 5815,
      "umt": 5816,
      "umhängen": 5817,
      "umhänge": 5818,
      "senkre": 5819,
      "lappen": 5820,
      "strahlen": 5821,
      "irgendet": 5822,
      "ausschau": 5823,
      "auswahl": 5824,
      "ota": 5825,
      "pfang": 5826,
      "bob": 5827,
      "überblickt": 5828,
      "verär": 5829,
      "verschm": 5830,
      "verlegt": 5831,
      "verteilen": 5832,
      "verfolgen": 5833,
      "spruch": 5834,
      "sprungt": 5835,
      "untergeht": 5836,
      "meter": 5837,
      "hemdbluse": 5838,
      "schauspieler": 5839,
      "radrennfahrer": 5840,
      "radio": 5841,
      "füttern": 5842,
      "zelte": 5843,
      "dreiköpfige": 5844,
      "empfang": 5845,
      "durchgang": 5846,
      "durchsucht": 5847,
      "herein": 5848,
      "handgelen": 5849,
      "lieb": 5850,
      "liebl": 5851,
      "tischdecke": 5852,
      "strickt": 5853,
      "federn": 5854,
      "fechten": 5855,
      "teilnimmt": 5856,
      "oberteile": 5857,
      "matro": 5858,
      "maga": 5859,
      "kleinere": 5860,
      "ischem": 5861,
      "gehenden": 5862,
      "paket": 5863,
      "weißhaariger": 5864,
      "bauer": 5865,
      "fußweg": 5866,
      "wirken": 5867,
      "fahrradrennen": 5868,
      "flö": 5869,
      "versehen": 5870,
      "hochge": 5871,
      "hochhält": 5872,
      "hochspringt": 5873,
      "boarden": 5874,
      "strandpromenade": 5875,
      "abdeck": 5876,
      "feldhockey": 5877,
      "örter": 5878,
      "vorbeifahren": 5879,
      "küh": 5880,
      "wiegt": 5881,
      "essend": 5882,
      "ttle": 5883,
      "fußballspielen": 5884,
      "gestellten": 5885,
      "lern": 5886,
      "autositz": 5887,
      "schwimmwesten": 5888,
      "schwimmflügeln": 5889,
      "vieh": 5890,
      "cock": 5891,
      "court": 5892,
      "countr": 5893,
      "anzüge": 5894,
      "rothaarigen": 5895,
      "lob": 5896,
      "dunkeln": 5897,
      "straßenbahn": 5898,
      "straßenmarkt": 5899,
      "bahngleisen": 5900,
      "karnev": 5901,
      "schat": 5902,
      "seife": 5903,
      "seits": 5904,
      "seitlich": 5905,
      "bandmitglieder": 5906,
      "skuchen": 5907,
      "skraft": 5908,
      "kletterwand": 5909,
      "decker": 5910,
      "deckten": 5911,
      "deckel": 5912,
      "platziert": 5913,
      "gehwegs": 5914,
      "baums": 5915,
      "geschäftige": 5916,
      "skateboardpark": 5917,
      "zeitungs": 5918,
      "sportplatz": 5919,
      "holztisch": 5920,
      "schlacht": 5921,
      "muslim": 5922,
      "stoßen": 5923,
      "steingebäude": 5924,
      "bedeckter": 5925,
      "staunen": 5926,
      "lteten": 5927,
      "baseballkleidung": 5928,
      "hellgelben": 5929,
      "hellbraune": 5930,
      "hellbraunem": 5931,
      "kunstvollen": 5932,
      "probe": 5933,
      "marktstand": 5934,
      "tennisschuhen": 5935,
      "musikern": 5936,
      "schildkr": 5937,
      "eiswagen": 5938,
      "eisbahn": 5939,
      "eiswaffeln": 5940,
      "körbe": 5941,
      "obwohl": 5942,
      "spag": 5943,
      "dicke": 5944,
      "footballteam": 5945,
      "studiert": 5946,
      "sägen": 5947,
      "blumenstrauß": 5948,
      "mikrofone": 5949,
      "mikrofonen": 5950,
      "badekleidung": 5951,
      "springenden": 5952,
      "kanne": 5953,
      "kanal": 5954,
      "doku": 5955,
      "dogs": 5956,
      "doppel": 5957,
      "kampfkunst": 5958,
      "metallt": 5959,
      "kicken": 5960,
      "sackhüpfen": 5961,
      "sstä": 5962,
      "lebha": 5963,
      "leidenschaft": 5964,
      "landkarte": 5965,
      "maulkörben": 5966,
      "nachtclub": 5967,
      "schrank": 5968,
      "seilspringen": 5969,
      "hörern": 5970,
      "hörsaal": 5971,
      "metallzaun": 5972,
      "open": 5973,
      "werkzeuge": 5974,
      "toren": 5975,
      "rennbahn": 5976,
      "pinken": 5977,
      "pinkfarbene": 5978,
      "schön": 5979,
      "bulle": 5980,
      "stämm": 5981,
      "riemen": 5982,
      "betonbank": 5983,
      "betonplatte": 5984,
      "einkaufspas": 5985,
      "garagen": 5986,
      "tauch": 5987,
      "abente": 5988,
      "wäl": 5989,
      "wäre": 5990,
      "wählt": 5991,
      "gelbbrauner": 5992,
      "zoo": 5993,
      "zombie": 5994,
      "wenig": 5995,
      "balgen": 5996,
      "geradeaus": 5997,
      "offener": 5998,
      "cowgirl": 5999,
      "wettlauf": 6000,
      "keiten": 6001,
      "nackten": 6002,
      "nacktes": 6003,
      "teenagerin": 6004,
      "kronen": 6005,
      "rollern": 6006,
      "qual": 6007,
      "ziegeln": 6008,
      "wurden": 6009,
      "bärten": 6010,
      "rollstühlen": 6011,
      "streich": 6012,
      "bikes": 6013,
      "zähnen": 6014,
      "weihnachten": 6015,
      "fußgängerbrücke": 6016,
      "nichts": 6017,
      "scheiben": 6018,
      "pflanzt": 6019,
      "köpfigen": 6020,
      "gast": 6021,
      "bikinis": 6022,
      "farbenfroh": 6023,
      "buntem": 6024,
      "buntes": 6025,
      "stöbern": 6026,
      "ausgesto": 6027,
      "zeichnungen": 6028,
      "verkehrt": 6029,
      "mini": 6030,
      "minton": 6031,
      "minigol": 6032,
      "mindesten": 6033,
      "hochzeitstorte": 6034,
      "motorradfahrern": 6035,
      "schmutziges": 6036,
      "jüngeres": 6037,
      "tänzerinnen": 6038,
      "welche": 6039,
      "fließen": 6040,
      "kirchen": 6041,
      "schält": 6042,
      "schädel": 6043,
      "badminton": 6044,
      "angelein": 6045,
      "bedienung": 6046,
      "fallenen": 6047,
      "gegenüberliegenden": 6048,
      "verkleideter": 6049,
      "trommelt": 6050,
      "tätowierter": 6051,
      "tiefen": 6052,
      "goldfarbenen": 6053,
      "abgesperr": 6054,
      "abgedunkelten": 6055,
      "glückliches": 6056,
      "glastür": 6057,
      "bänder": 6058,
      "videospiele": 6059,
      "blühenden": 6060,
      "kompliz": 6061,
      "reinig": 6062,
      "völker": 6063,
      "miami": 6064,
      "golfplatz": 6065,
      "schaufensterfront": 6066,
      "kitteln": 6067,
      "eingangs": 6068,
      "flohmarkt": 6069,
      "früchten": 6070,
      "terrier": 6071,
      "kopftü": 6072,
      "krankenschwestern": 6073,
      "khakihose": 6074,
      "kiefern": 6075,
      "komplex": 6076,
      "umzugs": 6077,
      "großstadt": 6078,
      "bücherregal": 6079,
      "karateanzug": 6080,
      "karateanzügen": 6081,
      "strohhal": 6082,
      "einzelne": 6083,
      "seitenlinie": 6084,
      "bullenreiter": 6085,
      "ärmellosem": 6086,
      "punkten": 6087,
      "dekorierten": 6088,
      "rohre": 6089,
      "brochen": 6090,
      "pitch": 6091,
      "mehrfarbige": 6092,
      "essenswagen": 6093,
      "wolk": 6094,
      "wände": 6095,
      "gewehren": 6096,
      "küchentresen": 6097,
      "hochzeitskleid": 6098,
      "hochzeitskleidung": 6099,
      "verlassenen": 6100,
      "fröhliches": 6101,
      "taucheranzug": 6102,
      "klarinette": 6103,
      "umgedreh": 6104,
      "umgestürzten": 6105,
      "stabhochsprung": 6106,
      "spazierstock": 6107,
      "schlecht": 6108,
      "lehrerin": 6109,
      "unterschiedlicher": 6110,
      "deutscher": 6111,
      "ordnet": 6112,
      "klatschen": 6113,
      "geschminkt": 6114,
      "modellflugzeug": 6115,
      "begutachten": 6116,
      "limon": 6117,
      "limous": 6118,
      "schiene": 6119,
      "gesichter": 6120,
      "bleistift": 6121,
      "entgegengesetz": 6122,
      "mülltüte": 6123,
      "weihnachtsmannkostüm": 6124,
      "dünne": 6125,
      "schippt": 6126,
      "freizeitkleidung": 6127,
      "schmettert": 6128,
      "warnwesten": 6129,
      "krankenhausbett": 6130,
      "aufmerksamkeit": 6131,
      "schließt": 6132,
      "hotdogs": 6133,
      "attraktion": 6134,
      "rückwärtssalto": 6135,
      "intensiv": 6136,
      "sturz": 6137,
      "notizen": 6138,
      "lippenstift": 6139,
      "schotterstraße": 6140,
      "schotterweg": 6141,
      "bordsteinkante": 6142,
      "geschminkten": 6143,
      "engels": 6144,
      "rauchend": 6145,
      "blöcke": 6146,
      "betrieb": 6147,
      "halsketten": 6148,
      "dekorationen": 6149,
      "flanell": 6150,
      "begleit": 6151,
      "schwarzweißer": 6152,
      "trennt": 6153,
      "trenchco": 6154,
      "saiteninstrument": 6155,
      "kundgebung": 6156,
      "nudeln": 6157,
      "inspizieren": 6158,
      "inspiziert": 6159,
      "einzufangen": 6160,
      "grinsen": 6161,
      "pflückt": 6162,
      "brechenden": 6163,
      "marineblauen": 6164,
      "professor": 6165,
      "zuckerwatte": 6166,
      "latein": 6167,
      "fußballteams": 6168,
      "bulldo": 6169,
      "funktion": 6170,
      "press": 6171,
      "möbelstück": 6172,
      "pinata": 6173,
      "gesenktem": 6174,
      "fitnessstudio": 6175,
      "türkisfarbenen": 6176,
      "speisekarte": 6177,
      "rummel": 6178,
      "shop": 6179,
      "weinendes": 6180,
      "gebacken": 6181,
      "seattle": 6182,
      "schaulustige": 6183,
      "liegestühlen": 6184,
      "ängst": 6185,
      "reparaturen": 6186,
      "ultimate": 6187,
      "gebeug": 6188,
      "green": 6189,
      "hüpfburg": 6190,
      "lohfarbener": 6191,
      "kartoffel": 6192,
      "fältig": 6193,
      "akustische": 6194,
      "geöffnetem": 6195,
      "hawaii": 6196,
      "wendung": 6197,
      "schonern": 6198,
      "sprache": 6199,
      "beaufsich": 6200,
      "beteiligt": 6201,
      "befindlichen": 6202,
      "matratze": 6203,
      "geschossen": 6204,
      "geschrieben": 6205,
      "kopfsteinpflasterstraße": 6206,
      "schnuller": 6207,
      "schnorchel": 6208,
      "sooners": 6209,
      "schlüssel": 6210,
      "parasail": 6211,
      "schminke": 6212,
      "domino": 6213,
      "wetteifern": 6214,
      "dinosaurier": 6215,
      "fasziniert": 6216,
      "professione": 6217,
      "eventuell": 6218,
      "ipod": 6219,
      "äumten": 6220,
      "bastelt": 6221,
      "leoparden": 6222,
      "senioren": 6223,
      "pulver": 6224,
      "nadelstreifen": 6225,
      "aufgeblasenen": 6226,
      "filzhut": 6227,
      "frühstück": 6228,
      "digitalkamera": 6229,
      "sorgfältig": 6230,
      "dekorativen": 6231,
      "pyjama": 6232,
      "pyramide": 6233,
      "popcorn": 6234,
      "hindernisparcours": 6235,
      "kathedrale": 6236,
      "jüd": 6237,
      "zettel": 6238,
      "unaufgeräumten": 6239,
      "rallye": 6240,
      "beschädig": 6241,
      "irgendetwas": 6242,
      "verärgert": 6243,
      "country": 6244,
      "einkaufspassage": 6245,
      "mindestens": 6246,
      "abgesperrten": 6247,
      "limousine": 6248,
      "trenchcoat": 6249,
      "parasailing": 6250,
      "0er": 6251,
      "ap": 6252,
      "acker": 6253,
      "bir": 6254,
      "big": 6255,
      "cs": 6256,
      "cas": 6257,
      "cra": 6258,
      "dirt": 6259,
      "dart": 6260,
      "drä": 6261,
      "drücken": 6262,
      "ek": 6263,
      "eo": 6264,
      "ey": 6265,
      "fund": 6266,
      "fter": 6267,
      "feh": 6268,
      "fchen": 6269,
      "furch": 6270,
      "ffin": 6271,
      "fpipe": 6272,
      "gange": 6273,
      "glichen": 6274,
      "ggon": 6275,
      "gärt": 6276,
      "hus": 6277,
      "imit": 6278,
      "ica": 6279,
      "kein": 6280,
      "kro": 6281,
      "kers": 6282,
      "kalen": 6283,
      "lut": 6284,
      "lingen": 6285,
      "ldig": 6286,
      "mie": 6287,
      "mich": 6288,
      "meh": 6289,
      "mischer": 6290,
      "misst": 6291,
      "nei": 6292,
      "nüs": 6293,
      "ov": 6294,
      "oper": 6295,
      "prie": 6296,
      "preis": 6297,
      "ry": 6298,
      "rings": 6299,
      "runde": 6300,
      "rängen": 6301,
      "sö": 6302,
      "sum": 6303,
      "sko": 6304,
      "ske": 6305,
      "sgeschäft": 6306,
      "ssaal": 6307,
      "tassen": 6308,
      "töpfen": 6309,
      "ub": 6310,
      "uten": 6311,
      "uers": 6312,
      "utet": 6313,
      "wh": 6314,
      "wan": 6315,
      "wangen": 6316,
      "zigen": 6317,
      "zige": 6318,
      "zehen": 6319,
      "informe": 6320,
      "enge": 6321,
      "enter": 6322,
      "einteil": 6323,
      "einzigar": 6324,
      "einschließ": 6325,
      "erhalten": 6326,
      "aum": 6327,
      "anbe": 6328,
      "andes": 6329,
      "anscheinen": 6330,
      "angriff": 6331,
      "uner": 6332,
      "eisk": 6333,
      "eisten": 6334,
      "stunde": 6335,
      "schin": 6336,
      "schweißen": 6337,
      "schleu": 6338,
      "ged": 6339,
      "geg": 6340,
      "gebl": 6341,
      "gefa": 6342,
      "gesa": 6343,
      "gemalt": 6344,
      "gejagt": 6345,
      "gebogen": 6346,
      "gesteckt": 6347,
      "gehol": 6348,
      "gestrü": 6349,
      "gestützt": 6350,
      "gedrängt": 6351,
      "gebauten": 6352,
      "gebob": 6353,
      "itu": 6354,
      "itter": 6355,
      "iets": 6356,
      "aufgabe": 6357,
      "are": 6358,
      "arten": 6359,
      "arab": 6360,
      "ongebob": 6361,
      "defen": 6362,
      "dehn": 6363,
      "deutet": 6364,
      "weite": 6365,
      "spart": 6366,
      "spät": 6367,
      "spenden": 6368,
      "spongebob": 6369,
      "orten": 6370,
      "llauf": 6371,
      "lligen": 6372,
      "grab": 6373,
      "klö": 6374,
      "klich": 6375,
      "termin": 6376,
      "ragt": 6377,
      "zugeht": 6378,
      "zueinander": 6379,
      "zupft": 6380,
      "zuhörer": 6381,
      "zugewandt": 6382,
      "zweig": 6383,
      "zweiten": 6384,
      "zweiter": 6385,
      "ehn": 6386,
      "rod": 6387,
      "ros": 6388,
      "roben": 6389,
      "robo": 6390,
      "bed": 6391,
      "bema": 6392,
      "betritt": 6393,
      "bequ": 6394,
      "bettelt": 6395,
      "besprü": 6396,
      "bechern": 6397,
      "beenden": 6398,
      "bestimm": 6399,
      "beruh": 6400,
      "benden": 6401,
      "amp": 6402,
      "baden": 6403,
      "badet": 6404,
      "neug": 6405,
      "netzen": 6406,
      "nebligen": 6407,
      "heke": 6408,
      "hechtet": 6409,
      "reich": 6410,
      "reist": 6411,
      "vordach": 6412,
      "vorbereiten": 6413,
      "lem": 6414,
      "leere": 6415,
      "sitzend": 6416,
      "schwamm": 6417,
      "schwanger": 6418,
      "reckt": 6419,
      "repor": 6420,
      "reagieren": 6421,
      "spielzug": 6422,
      "spielzeu": 6423,
      "habe": 6424,
      "fach": 6425,
      "hunder": 6426,
      "hunderen": 6427,
      "holl": 6428,
      "umklammert": 6429,
      "seet": 6430,
      "segeln": 6431,
      "sesseln": 6432,
      "gehö": 6433,
      "senf": 6434,
      "personal": 6435,
      "trö": 6436,
      "latten": 6437,
      "straf": 6438,
      "blaugrünen": 6439,
      "ballbesitz": 6440,
      "ausstatt": 6441,
      "auszeichnung": 6442,
      "pfau": 6443,
      "esur": 6444,
      "überwie": 6445,
      "überkreuzten": 6446,
      "endzone": 6447,
      "verzieht": 6448,
      "verbringen": 6449,
      "verdunkelten": 6450,
      "vermut": 6451,
      "verletzt": 6452,
      "vereisten": 6453,
      "hemdchen": 6454,
      "unterteil": 6455,
      "unterhalb": 6456,
      "sert": 6457,
      "meda": 6458,
      "istie": 6459,
      "iko": 6460,
      "kosten": 6461,
      "kokos": 6462,
      "ckepack": 6463,
      "ilift": 6464,
      "alie": 6465,
      "alber": 6466,
      "entschei": 6467,
      "brit": 6468,
      "brät": 6469,
      "brief": 6470,
      "wasserball": 6471,
      "wasserfahrzeug": 6472,
      "wasserlauf": 6473,
      "kindergruppe": 6474,
      "sitzendes": 6475,
      "durchsich": 6476,
      "kalt": 6477,
      "kaput": 6478,
      "spielende": 6479,
      "grüßen": 6480,
      "handtü": 6481,
      "liebe": 6482,
      "staffe": 6483,
      "stags": 6484,
      "sab": 6485,
      "tischtennis": 6486,
      "strö": 6487,
      "strandes": 6488,
      "olo": 6489,
      "oberhemd": 6490,
      "matten": 6491,
      "langarm": 6492,
      "toy": 6493,
      "tack": 6494,
      "tail": 6495,
      "angesicht": 6496,
      "büsche": 6497,
      "büchern": 6498,
      "tzchen": 6499,
      "dafür": 6500,
      "paint": 6501,
      "wat": 6502,
      "waten": 6503,
      "wadet": 6504,
      "waggon": 6505,
      "freiwill": 6506,
      "fußtritt": 6507,
      "wirbt": 6508,
      "fahrradreifen": 6509,
      "kamin": 6510,
      "stütze": 6511,
      "stützen": 6512,
      "steller": 6513,
      "steak": 6514,
      "uhen": 6515,
      "igebiet": 6516,
      "pustet": 6517,
      "power": 6518,
      "pokal": 6519,
      "verse": 6520,
      "versen": 6521,
      "versor": 6522,
      "zugucken": 6523,
      "zuguckt": 6524,
      "hochklettert": 6525,
      "geschichte": 6526,
      "abhang": 6527,
      "abstamm": 6528,
      "abschluss": 6529,
      "parks": 6530,
      "igan": 6531,
      "kelle": 6532,
      "affen": 6533,
      "vierköpfige": 6534,
      "hühner": 6535,
      "nation": 6536,
      "oranges": 6537,
      "müde": 6538,
      "glü": 6539,
      "gler": 6540,
      "ttänzer": 6541,
      "wandt": 6542,
      "stadtplatz": 6543,
      "rosafarbenes": 6544,
      "schwimmerin": 6545,
      "come": 6546,
      "grauhaarige": 6547,
      "grauhaariger": 6548,
      "skates": 6549,
      "lose": 6550,
      "love": 6551,
      "pferdes": 6552,
      "dunk": 6553,
      "straßencafé": 6554,
      "lenkt": 6555,
      "lenker": 6556,
      "karika": 6557,
      "schalter": 6558,
      "schläuchen": 6559,
      "sandskulptur": 6560,
      "großem": 6561,
      "motorboot": 6562,
      "rustik": 6563,
      "ruinen": 6564,
      "skör": 6565,
      "skilift": 6566,
      "skigebiet": 6567,
      "formen": 6568,
      "platzes": 6569,
      "ernte": 6570,
      "laufender": 6571,
      "laufende": 6572,
      "gewonnen": 6573,
      "skateboardtrick": 6574,
      "skateboardrampe": 6575,
      "babyschaukel": 6576,
      "holzstuhl": 6577,
      "musizieren": 6578,
      "stopp": 6579,
      "darsteller": 6580,
      "ärzt": 6581,
      "ärmeln": 6582,
      "arbeitende": 6583,
      "zerkleiner": 6584,
      "zerbrochen": 6585,
      "rangeln": 6586,
      "uferweg": 6587,
      "barr": 6588,
      "rädr": 6589,
      "räumt": 6590,
      "gebra": 6591,
      "gebiets": 6592,
      "hellrosa": 6593,
      "poliert": 6594,
      "politischen": 6595,
      "kongress": 6596,
      "motorradrennen": 6597,
      "halfpipe": 6598,
      "kunstausstellung": 6599,
      "probt": 6600,
      "programm": 6601,
      "attack": 6602,
      "drängen": 6603,
      "tennisspielen": 6604,
      "raums": 6605,
      "korri": 6606,
      "eiswaffel": 6607,
      "obama": 6608,
      "berghang": 6609,
      "bergsteigen": 6610,
      "rucksäcke": 6611,
      "fensterputzer": 6612,
      "gleiten": 6613,
      "gleise": 6614,
      "gleiche": 6615,
      "ussel": 6616,
      "blumenwiese": 6617,
      "bademantel": 6618,
      "free": 6619,
      "restaurantküche": 6620,
      "heißt": 6621,
      "jemandes": 6622,
      "kleinstadt": 6623,
      "kleinigkeit": 6624,
      "schutzwesten": 6625,
      "schmie": 6626,
      "kanone": 6627,
      "lehm": 6628,
      "kipp": 6629,
      "kippt": 6630,
      "landung": 6631,
      "landwirt": 6632,
      "seilschaukel": 6633,
      "metallgegenstand": 6634,
      "toreinfahrt": 6635,
      "gemach": 6636,
      "gemisch": 6637,
      "gemeinde": 6638,
      "amerikaner": 6639,
      "felsige": 6640,
      "höhle": 6641,
      "juwel": 6642,
      "schöpft": 6643,
      "bude": 6644,
      "bucks": 6645,
      "richtig": 6646,
      "stäbe": 6647,
      "stäben": 6648,
      "stäbchen": 6649,
      "betonrampe": 6650,
      "tauchen": 6651,
      "türeingang": 6652,
      "fällen": 6653,
      "haupts": 6654,
      "comic": 6655,
      "gute": 6656,
      "spanischer": 6657,
      "brunnens": 6658,
      "mittell": 6659,
      "linien": 6660,
      "lings": 6661,
      "orangensaft": 6662,
      "befestigen": 6663,
      "statuen": 6664,
      "künstlerin": 6665,
      "zigaretten": 6666,
      "dusche": 6667,
      "beugen": 6668,
      "freundes": 6669,
      "freundinnen": 6670,
      "gemütlich": 6671,
      "schlägern": 6672,
      "herrlichen": 6673,
      "drag": 6674,
      "wintermantel": 6675,
      "führenden": 6676,
      "arbeitsplatz": 6677,
      "verschiedenfarbigen": 6678,
      "streiten": 6679,
      "streicheln": 6680,
      "gartenstuhl": 6681,
      "partner": 6682,
      "grills": 6683,
      "außerdem": 6684,
      "warenkorb": 6685,
      "kommenden": 6686,
      "möbeln": 6687,
      "mönch": 6688,
      "esszimmer": 6689,
      "huckepack": 6690,
      "behinder": 6691,
      "weihnachtsgeschen": 6692,
      "weingläsern": 6693,
      "vaters": 6694,
      "issenen": 6695,
      "geschäftsmann": 6696,
      "schwimmenden": 6697,
      "polizistin": 6698,
      "schaffen": 6699,
      "klappe": 6700,
      "boogie": 6701,
      "afroamerikanerin": 6702,
      "milch": 6703,
      "lasters": 6704,
      "schmutzige": 6705,
      "erledigen": 6706,
      "ledermantel": 6707,
      "ebene": 6708,
      "marathonlauf": 6709,
      "kirmes": 6710,
      "geiger": 6711,
      "rasieren": 6712,
      "fallenden": 6713,
      "militärische": 6714,
      "balancieren": 6715,
      "bekleidungsgeschäft": 6716,
      "schlafender": 6717,
      "schlafenden": 6718,
      "backsteinwand": 6719,
      "irgendeine": 6720,
      "jahre": 6721,
      "fliegende": 6722,
      "blüten": 6723,
      "lastwagens": 6724,
      "golfspieler": 6725,
      "blattwerk": 6726,
      "bieten": 6727,
      "szenerie": 6728,
      "ähnliche": 6729,
      "ähnliches": 6730,
      "außenseite": 6731,
      "ausgestrecktem": 6732,
      "schaufenstern": 6733,
      "kitesur": 6734,
      "blättert": 6735,
      "blätterhaufen": 6736,
      "frühl": 6737,
      "krankenschwester": 6738,
      "agiert": 6739,
      "würden": 6740,
      "balkonen": 6741,
      "pian": 6742,
      "piers": 6743,
      "rettung": 6744,
      "disney": 6745,
      "erdbe": 6746,
      "erdboden": 6747,
      "mehrfarb": 6748,
      "geschnitz": 6749,
      "schleifen": 6750,
      "bewundern": 6751,
      "protestieren": 6752,
      "sari": 6753,
      "verteidigen": 6754,
      "choreo": 6755,
      "größe": 6756,
      "japaner": 6757,
      "hochzeitsfeier": 6758,
      "hochzeitsgesellschaft": 6759,
      "plakatwand": 6760,
      "verlassene": 6761,
      "schotten": 6762,
      "hängebrücke": 6763,
      "barfüßiges": 6764,
      "dunkelhaariges": 6765,
      "griffen": 6766,
      "vornüber": 6767,
      "unterschiedliche": 6768,
      "faust": 6769,
      "poloshirt": 6770,
      "olympia": 6771,
      "verkehrsmittel": 6772,
      "elternteil": 6773,
      "nippt": 6774,
      "tutu": 6775,
      "anzuziehen": 6776,
      "anzugreifen": 6777,
      "medit": 6778,
      "match": 6779,
      "objekten": 6780,
      "nike": 6781,
      "ponch": 6782,
      "letzten": 6783,
      "pracht": 6784,
      "pingu": 6785,
      "kamelen": 6786,
      "apparat": 6787,
      "harten": 6788,
      "harfe": 6789,
      "pistolen": 6790,
      "schließen": 6791,
      "schusswaffe": 6792,
      "besitzer": 6793,
      "bauernhof": 6794,
      "flauschigen": 6795,
      "heißluftballons": 6796,
      "leitungen": 6797,
      "wasserskifahrer": 6798,
      "kriegs": 6799,
      "sortieren": 6800,
      "stolpert": 6801,
      "gerichteten": 6802,
      "gebilde": 6803,
      "konferenztisch": 6804,
      "freuen": 6805,
      "operationssaal": 6806,
      "kragenhemd": 6807,
      "superman": 6808,
      "geschminktem": 6809,
      "wissenschaftler": 6810,
      "wissenschaftliches": 6811,
      "bongo": 6812,
      "scharfe": 6813,
      "schüttet": 6814,
      "besucher": 6815,
      "besuchten": 6816,
      "dirigen": 6817,
      "diadem": 6818,
      "flanke": 6819,
      "erleuchtet": 6820,
      "schwarzweißen": 6821,
      "flaches": 6822,
      "eishockeyspiel": 6823,
      "interessan": 6824,
      "interessanten": 6825,
      "medizinischen": 6826,
      "medizinische": 6827,
      "bummel": 6828,
      "nudel": 6829,
      "pflügt": 6830,
      "schaumbad": 6831,
      "patient": 6832,
      "bräunlicher": 6833,
      "offiz": 6834,
      "offizie": 6835,
      "rundes": 6836,
      "rafting": 6837,
      "schneehaufen": 6838,
      "geschmückten": 6839,
      "inneren": 6840,
      "italien": 6841,
      "spuren": 6842,
      "verliert": 6843,
      "verloren": 6844,
      "wassermelone": 6845,
      "banane": 6846,
      "fliesenboden": 6847,
      "traurig": 6848,
      "mcdonald": 6849,
      "action": 6850,
      "knallbunten": 6851,
      "rednerpult": 6852,
      "kastanienbraunen": 6853,
      "beladenen": 6854,
      "lackiert": 6855,
      "stapeln": 6856,
      "nächtlichen": 6857,
      "piercing": 6858,
      "scheinwerferlicht": 6859,
      "lautsprecher": 6860,
      "blondhaariges": 6861,
      "verbundenen": 6862,
      "liga": 6863,
      "erhöhten": 6864,
      "chips": 6865,
      "verwirrt": 6866,
      "mechaniker": 6867,
      "bronze": 6868,
      "bäckerei": 6869,
      "angemaltem": 6870,
      "angestellte": 6871,
      "fluteten": 6872,
      "schreiendes": 6873,
      "textnachricht": 6874,
      "aufgeregte": 6875,
      "langärmligen": 6876,
      "informationen": 6877,
      "erzielen": 6878,
      "gesprei": 6879,
      "teddybär": 6880,
      "urnier": 6881,
      "balletttänzer": 6882,
      "papiert": 6883,
      "pferderennen": 6884,
      "dienst": 6885,
      "kanadischen": 6886,
      "brünettes": 6887,
      "mannschaftskollegen": 6888,
      "rollerskates": 6889,
      "symbol": 6890,
      "tintenfisch": 6891,
      "steinernen": 6892,
      "rampen": 6893,
      "befördert": 6894,
      "beeindrucken": 6895,
      "schwierigkeiten": 6896,
      "truthahn": 6897,
      "verdienen": 6898,
      "designer": 6899,
      "navigiert": 6900,
      "eisschnellläufer": 6901,
      "buckelnden": 6902,
      "plantscht": 6903,
      "mixer": 6904,
      "friedhof": 6905,
      "labrador": 6906,
      "interviewt": 6907,
      "aschine": 6908,
      "dicker": 6909,
      "gänse": 6910,
      "knochen": 6911,
      "wheelie": 6912,
      "erzählt": 6913,
      "spider": 6914,
      "betrunken": 6915,
      "befragt": 6916,
      "vorlesung": 6917,
      "gerahmte": 6918,
      "lieblings": 6919,
      "matrosen": 6920,
      "lobby": 6921,
      "schattigen": 6922,
      "schildkröte": 6923,
      "leidenschaftlich": 6924,
      "garagentor": 6925,
      "tauchausrüstung": 6926,
      "minigolf": 6927,
      "kopftüchern": 6928,
      "strohhalm": 6929,
      "bulldozer": 6930,
      "funktioniert": 6931,
      "beaufsichtigt": 6932,
      "gärtner": 6933,
      "mehl": 6934,
      "nüsse": 6935,
      "priester": 6936,
      "einschließlich": 6937,
      "anscheinend": 6938,
      "geholfen": 6939,
      "gestrüpp": 6940,
      "roboter": 6941,
      "bequem": 6942,
      "neugier": 6943,
      "ausstattung": 6944,
      "vermutlich": 6945,
      "staffellauf": 6946,
      "abstammung": 6947,
      "karikatur": 6948,
      "korridor": 6949,
      "19": 6950,
      "30": 6951,
      "ais": 6952,
      "apart": 6953,
      "ament": 6954,
      "bter": 6955,
      "bung": 6956,
      "but": 6957,
      "bug": 6958,
      "bucht": 6959,
      "cl": 6960,
      "cal": 6961,
      "ctor": 6962,
      "cue": 6963,
      "cert": 6964,
      "cone": 6965,
      "dil": 6966,
      "dingen": 6967,
      "dländ": 6968,
      "eck": 6969,
      "ellen": 6970,
      "edo": 6971,
      "equ": 6972,
      "fung": 6973,
      "fru": 6974,
      "ffern": 6975,
      "gü": 6976,
      "gur": 6977,
      "gaf": 6978,
      "gähn": 6979,
      "hir": 6980,
      "hark": 6981,
      "hmten": 6982,
      "ice": 6983,
      "idy": 6984,
      "jal": 6985,
      "ky": 6986,
      "kass": 6987,
      "krücken": 6988,
      "ld": 6989,
      "lben": 6990,
      "lers": 6991,
      "lass": 6992,
      "mbr": 6993,
      "mischen": 6994,
      "messen": 6995,
      "mass": 6996,
      "mess": 6997,
      "mama": 6998,
      "nor": 6999,
      "nchen": 7000,
      "ning": 7001,
      "nbahn": 7002,
      "nische": 7003,
      "nonnen": 7004,
      "ox": 7005,
      "oter": 7006,
      "opp": 7007,
      "ose": 7008,
      "osen": 7009,
      "ome": 7010,
      "oke": 7011,
      "osk": 7012,
      "okla": 7013,
      "plä": 7014,
      "pend": 7015,
      "phen": 7016,
      "rent": 7017,
      "skleidung": 7018,
      "sgebäude": 7019,
      "sco": 7020,
      "sladen": 7021,
      "slam": 7022,
      "tin": 7023,
      "tchen": 7024,
      "tha": 7025,
      "tieren": 7026,
      "ura": 7027,
      "uche": 7028,
      "vitr": 7029,
      "won": 7030,
      "wisch": 7031,
      "wickelt": 7032,
      "wörter": 7033,
      "yon": 7034,
      "yama": 7035,
      "zi": 7036,
      "zte": 7037,
      "zger": 7038,
      "zir": 7039,
      "zange": 7040,
      "zehn": 7041,
      "äg": 7042,
      "äu": 7043,
      "ären": 7044,
      "älligen": 7045,
      "ös": 7046,
      "öcken": 7047,
      "üss": 7048,
      "inge": 7049,
      "inkl": 7050,
      "inse": 7051,
      "ineinander": 7052,
      "ining": 7053,
      "engl": 7054,
      "enkel": 7055,
      "erun": 7056,
      "erober": 7057,
      "ersten": 7058,
      "erhebt": 7059,
      "erkund": 7060,
      "erwischen": 7061,
      "aune": 7062,
      "anan": 7063,
      "anblick": 7064,
      "ansetzt": 7065,
      "ansatz": 7066,
      "angler": 7067,
      "unfertigen": 7068,
      "unruhigem": 7069,
      "eien": 7070,
      "eiern": 7071,
      "stchen": 7072,
      "stär": 7073,
      "stlicher": 7074,
      "schwei": 7075,
      "schweißer": 7076,
      "schmer": 7077,
      "schbecken": 7078,
      "schlangen": 7079,
      "schalen": 7080,
      "schichten": 7081,
      "gee": 7082,
      "gell": 7083,
      "gewe": 7084,
      "gebä": 7085,
      "gefährt": 7086,
      "gewa": 7087,
      "gehäu": 7088,
      "geküsst": 7089,
      "geholt": 7090,
      "gemalten": 7091,
      "gewaschen": 7092,
      "gefilmt": 7093,
      "getu": 7094,
      "gedenk": 7095,
      "getackelt": 7096,
      "gedeckten": 7097,
      "ieben": 7098,
      "aufgang": 7099,
      "aufzunehmen": 7100,
      "arc": 7101,
      "manzug": 7102,
      "onos": 7103,
      "debrett": 7104,
      "deere": 7105,
      "spir": 7106,
      "spol": 7107,
      "teer": 7108,
      "telt": 7109,
      "teboo": 7110,
      "asil": 7111,
      "orb": 7112,
      "lli": 7113,
      "lls": 7114,
      "llon": 7115,
      "llischen": 7116,
      "tender": 7117,
      "klem": 7118,
      "klub": 7119,
      "terin": 7120,
      "geneig": 7121,
      "genüss": 7122,
      "raster": 7123,
      "ime": 7124,
      "imen": 7125,
      "zuläuft": 7126,
      "zufinden": 7127,
      "zweier": 7128,
      "zweige": 7129,
      "zweiteil": 7130,
      "roh": 7131,
      "blin": 7132,
      "bean": 7133,
      "befrei": 7134,
      "bewer": 7135,
      "bellen": 7136,
      "betre": 7137,
      "belei": 7138,
      "besprechen": 7139,
      "bestan": 7140,
      "beschnüffelt": 7141,
      "bevölker": 7142,
      "menü": 7143,
      "beruf": 7144,
      "gton": 7145,
      "ames": 7146,
      "amme": 7147,
      "beil": 7148,
      "bak": 7149,
      "bast": 7150,
      "backen": 7151,
      "batter": 7152,
      "nete": 7153,
      "chenai": 7154,
      "heck": 7155,
      "heft": 7156,
      "reit": 7157,
      "reiher": 7158,
      "reitern": 7159,
      "itzern": 7160,
      "vorm": 7161,
      "vorliest": 7162,
      "vorhang": 7163,
      "leot": 7164,
      "lett": 7165,
      "lesel": 7166,
      "schwein": 7167,
      "schwan": 7168,
      "schwung": 7169,
      "sichten": 7170,
      "ierungen": 7171,
      "spielend": 7172,
      "spielautomaten": 7173,
      "haw": 7174,
      "hack": 7175,
      "happen": 7176,
      "haften": 7177,
      "urin": 7178,
      "kino": 7179,
      "kings": 7180,
      "fad": 7181,
      "gern": 7182,
      "ppschuss": 7183,
      "host": 7184,
      "homa": 7185,
      "hockern": 7186,
      "umeinander": 7187,
      "gehend": 7188,
      "geheim": 7189,
      "läden": 7190,
      "lären": 7191,
      "läss": 7192,
      "schwarzhaariger": 7193,
      "trans": 7194,
      "lader": 7195,
      "ballen": 7196,
      "männergruppe": 7197,
      "tis": 7198,
      "etts": 7199,
      "kleiden": 7200,
      "irsich": 7201,
      "ausblick": 7202,
      "ausstell": 7203,
      "ausführung": 7204,
      "ausgeschnitten": 7205,
      "ausgeschnittenen": 7206,
      "fahrbaren": 7207,
      "washin": 7208,
      "pfleger": 7209,
      "pfirsich": 7210,
      "bou": 7211,
      "boston": 7212,
      "hinge": 7213,
      "essstä": 7214,
      "übergibt": 7215,
      "gelan": 7216,
      "uts": 7217,
      "verw": 7218,
      "vermä": 7219,
      "verkä": 7220,
      "verrück": 7221,
      "verspritzt": 7222,
      "verhindern": 7223,
      "verbringt": 7224,
      "verwahr": 7225,
      "verstecken": 7226,
      "verzerr": 7227,
      "verstär": 7228,
      "verkleiden": 7229,
      "sprün": 7230,
      "unterseite": 7231,
      "unterbricht": 7232,
      "unterstütz": 7233,
      "menschenschlange": 7234,
      "istall": 7235,
      "lande": 7236,
      "landen": 7237,
      "langer": 7238,
      "landes": 7239,
      "iken": 7240,
      "kohle": 7241,
      "kostet": 7242,
      "kolon": 7243,
      "kodil": 7244,
      "kolben": 7245,
      "enthält": 7246,
      "entladen": 7247,
      "bruch": 7248,
      "brasil": 7249,
      "wasserschlauch": 7250,
      "wasserkante": 7251,
      "wasserfontäne": 7252,
      "renov": 7253,
      "renais": 7254,
      "empor": 7255,
      "farm": 7256,
      "hinterteil": 7257,
      "kalte": 7258,
      "kahlen": 7259,
      "fensters": 7260,
      "feldes": 7261,
      "here": 7262,
      "herauf": 7263,
      "herstellt": 7264,
      "handlung": 7265,
      "stapelt": 7266,
      "sagen": 7267,
      "sakko": 7268,
      "isierten": 7269,
      "jazz": 7270,
      "stri": 7271,
      "striert": 7272,
      "fegen": 7273,
      "feuers": 7274,
      "oliv": 7275,
      "oberhalb": 7276,
      "sieb": 7277,
      "mac": 7278,
      "langsam": 7279,
      "lichts": 7280,
      "shi": 7281,
      "shaus": 7282,
      "toter": 7283,
      "tollen": 7284,
      "town": 7285,
      "immten": 7286,
      "hnchen": 7287,
      "angezeigt": 7288,
      "bügelt": 7289,
      "entlanggehen": 7290,
      "dahin": 7291,
      "usive": 7292,
      "weggeht": 7293,
      "patro": 7294,
      "pavi": 7295,
      "packten": 7296,
      "patrio": 7297,
      "wall": 7298,
      "watten": 7299,
      "baustellen": 7300,
      "bauprojekt": 7301,
      "baumaschinen": 7302,
      "fuhr": 7303,
      "fuße": 7304,
      "freiheits": 7305,
      "indischen": 7306,
      "wirbeln": 7307,
      "fahrradgeschäft": 7308,
      "fahrradtrick": 7309,
      "steck": 7310,
      "stepp": 7311,
      "pub": 7312,
      "puzz": 7313,
      "luftsprung": 7314,
      "schneemann": 7315,
      "schneeweh": 7316,
      "schneeengel": 7317,
      "nacheinander": 7318,
      "nähen": 7319,
      "hatte": 7320,
      "abwärts": 7321,
      "abschle": 7322,
      "abbert": 7323,
      "werken": 7324,
      "kopfball": 7325,
      "iatur": 7326,
      "kek": 7327,
      "kete": 7328,
      "keller": 7329,
      "vierer": 7330,
      "felds": 7331,
      "ört": 7332,
      "kühen": 7333,
      "kühlen": 7334,
      "hütten": 7335,
      "nacken": 7336,
      "nahö": 7337,
      "bereits": 7338,
      "mütter": 7339,
      "fond": 7340,
      "glitzern": 7341,
      "gegenspieler": 7342,
      "schee": 7343,
      "schnür": 7344,
      "schnallt": 7345,
      "schnitzen": 7346,
      "fußballplatz": 7347,
      "fußballmannschaften": 7348,
      "stadtviertel": 7349,
      "schwimmern": 7350,
      "schwimmhilfe": 7351,
      "fahrener": 7352,
      "blusen": 7353,
      "anzer": 7354,
      "anzös": 7355,
      "ucher": 7356,
      "lou": 7357,
      "loko": 7358,
      "lokalen": 7359,
      "sonnenhut": 7360,
      "sonnenschein": 7361,
      "sonnenschirmen": 7362,
      "dunking": 7363,
      "straßenarbeiten": 7364,
      "posaune": 7365,
      "sou": 7366,
      "sollen": 7367,
      "sodass": 7368,
      "sowohl": 7369,
      "sombr": 7370,
      "bahngleise": 7371,
      "kargen": 7372,
      "kariertes": 7373,
      "schafen": 7374,
      "schläfchen": 7375,
      "sandplatz": 7376,
      "zusammenzu": 7377,
      "seile": 7378,
      "jeansrock": 7379,
      "rudel": 7380,
      "bandmitgliedern": 7381,
      "skist": 7382,
      "kletterausrüstung": 7383,
      "tessen": 7384,
      "frank": 7385,
      "frucht": 7386,
      "französ": 7387,
      "mault": 7388,
      "maulesel": 7389,
      "gewür": 7390,
      "moll": 7391,
      "mosa": 7392,
      "sichtbar": 7393,
      "sichtbaren": 7394,
      "baumgesäumten": 7395,
      "bildhau": 7396,
      "hinunterfährt": 7397,
      "mikrosko": 7398,
      "sportspiel": 7399,
      "sportliche": 7400,
      "sportbekleidung": 7401,
      "holzboot": 7402,
      "holzrampe": 7403,
      "holzplattform": 7404,
      "holzpfahl": 7405,
      "holzkohle": 7406,
      "schlummer": 7407,
      "musikan": 7408,
      "stoffe": 7409,
      "allel": 7410,
      "daraus": 7411,
      "ärzte": 7412,
      "festzug": 7413,
      "schult": 7414,
      "steinwand": 7415,
      "steinstufen": 7416,
      "bedeckte": 7417,
      "henna": 7418,
      "bares": 7419,
      "barren": 7420,
      "waldes": 7421,
      "schuhgeschäft": 7422,
      "schuhputzer": 7423,
      "baseballwerfer": 7424,
      "baseballspiels": 7425,
      "baseballkappen": 7426,
      "marke": 7427,
      "hellroten": 7428,
      "schneider": 7429,
      "schneidebrett": 7430,
      "konkur": 7431,
      "grafie": 7432,
      "wood": 7433,
      "kunstmuseum": 7434,
      "käfer": 7435,
      "kälte": 7436,
      "feuerleiter": 7437,
      "drauf": 7438,
      "drän": 7439,
      "folie": 7440,
      "tenniskleidung": 7441,
      "tennisbällen": 7442,
      "geländern": 7443,
      "musikal": 7444,
      "meerwasser": 7445,
      "meerjung": 7446,
      "eiscre": 7447,
      "noteboo": 7448,
      "spielzeugpferd": 7449,
      "bergigen": 7450,
      "berggipfel": 7451,
      "basketballwurf": 7452,
      "felsenklippe": 7453,
      "parallel": 7454,
      "footballt": 7455,
      "kugeln": 7456,
      "sätzen": 7457,
      "blumenmädchen": 7458,
      "blumenkleid": 7459,
      "blumenfeld": 7460,
      "blumentopf": 7461,
      "unice": 7462,
      "dunkelgrünen": 7463,
      "dunkelbrauner": 7464,
      "badesachen": 7465,
      "badebekleidung": 7466,
      "heimat": 7467,
      "knur": 7468,
      "knabbert": 7469,
      "regenschirme": 7470,
      "telefonmasten": 7471,
      "kleinbus": 7472,
      "hausaufgaben": 7473,
      "hausmeister": 7474,
      "zwill": 7475,
      "zwöl": 7476,
      "bien": 7477,
      "doch": 7478,
      "doktor": 7479,
      "metzger": 7480,
      "kiosk": 7481,
      "bretter": 7482,
      "radfahrerin": 7483,
      "tanzende": 7484,
      "leitern": 7485,
      "innenseite": 7486,
      "liegender": 7487,
      "belebter": 7488,
      "america": 7489,
      "dunkles": 7490,
      "metallkonstruktion": 7491,
      "skiausrüstung": 7492,
      "skipiste": 7493,
      "gemachten": 7494,
      "hölle": 7495,
      "lilafarbene": 7496,
      "outfiel": 7497,
      "schöpf": 7498,
      "rückenschwimmen": 7499,
      "herunterzu": 7500,
      "gewäch": 7501,
      "wehren": 7502,
      "rückhand": 7503,
      "krawatten": 7504,
      "wählen": 7505,
      "wäschel": 7506,
      "glasgebäude": 7507,
      "gelbbraunen": 7508,
      "gipfeln": 7509,
      "mittelgroßen": 7510,
      "guten": 7511,
      "wenige": 7512,
      "offene": 7513,
      "halbkreis": 7514,
      "poolbillard": 7515,
      "spannen": 7516,
      "spanien": 7517,
      "ungsfahrzeug": 7518,
      "krone": 7519,
      "kristall": 7520,
      "linge": 7521,
      "solo": 7522,
      "mul": 7523,
      "mult": 7524,
      "muscheln": 7525,
      "blickfeld": 7526,
      "schriftzug": 7527,
      "folkl": 7528,
      "melonen": 7529,
      "duscht": 7530,
      "quet": 7531,
      "öffentliche": 7532,
      "ruhige": 7533,
      "spielplatzgerät": 7534,
      "farbstiften": 7535,
      "bierflaschen": 7536,
      "städtischer": 7537,
      "wintermänteln": 7538,
      "bärtige": 7539,
      "silien": 7540,
      "starbucks": 7541,
      "verschiedener": 7542,
      "verschiedenfarbige": 7543,
      "feuerwehrwagen": 7544,
      "zahlen": 7545,
      "einsame": 7546,
      "einsames": 7547,
      "spritzern": 7548,
      "tzenansatz": 7549,
      "mundharmonika": 7550,
      "riesiger": 7551,
      "bissen": 7552,
      "kremp": 7553,
      "scheitel": 7554,
      "knietief": 7555,
      "lebensmittelgeschäfts": 7556,
      "gap": 7557,
      "brautkleid": 7558,
      "drehen": 7559,
      "mön": 7560,
      "möwe": 7561,
      "lötet": 7562,
      "ständen": 7563,
      "afrikanisches": 7564,
      "behan": 7565,
      "stöckigen": 7566,
      "müllbeutel": 7567,
      "lugt": 7568,
      "leuchtende": 7569,
      "befestigten": 7570,
      "capr": 7571,
      "bikinioberteil": 7572,
      "gerätschaften": 7573,
      "boxkampf": 7574,
      "herausragen": 7575,
      "miniatur": 7576,
      "tüm": 7577,
      "unbefestigtem": 7578,
      "wohnwagen": 7579,
      "wohnmobil": 7580,
      "schmutziger": 7581,
      "ohrhörern": 7582,
      "welchen": 7583,
      "welcome": 7584,
      "padd": 7585,
      "paddel": 7586,
      "fingernägel": 7587,
      "planschen": 7588,
      "planken": 7589,
      "planschbecken": 7590,
      "flieder": 7591,
      "kirsch": 7592,
      "saust": 7593,
      "bewachsenen": 7594,
      "kaum": 7595,
      "kauern": 7596,
      "rasierten": 7597,
      "rasiertem": 7598,
      "angelschnur": 7599,
      "angelehnt": 7600,
      "treppengeländer": 7601,
      "lkws": 7602,
      "militärs": 7603,
      "militäruniform": 7604,
      "militäruniformen": 7605,
      "goalie": 7606,
      "prüfung": 7607,
      "schulbus": 7608,
      "tiefe": 7609,
      "hafenbecken": 7610,
      "hafengebiet": 7611,
      "lama": 7612,
      "suv": 7613,
      "aufnahmen": 7614,
      "abgewandt": 7615,
      "grasbewachsene": 7616,
      "grasbewachsenes": 7617,
      "mobile": 7618,
      "backsteingebäudes": 7619,
      "kreisförmigen": 7620,
      "gezogenen": 7621,
      "schwelle": 7622,
      "irgendein": 7623,
      "glücklicher": 7624,
      "schnauzer": 7625,
      "hellhäutigen": 7626,
      "laubbedeckten": 7627,
      "laubhaufen": 7628,
      "laubbläser": 7629,
      "glatzenansatz": 7630,
      "jahren": 7631,
      "schönes": 7632,
      "flecken": 7633,
      "eingegraben": 7634,
      "blüte": 7635,
      "angezogenes": 7636,
      "reiniger": 7637,
      "erinner": 7638,
      "akkordeonspieler": 7639,
      "fischerboot": 7640,
      "mixt": 7641,
      "lockigem": 7642,
      "wäschekorb": 7643,
      "geworfenen": 7644,
      "biegt": 7645,
      "monster": 7646,
      "gesichtsmaske": 7647,
      "ausgestreckter": 7648,
      "schaufensterpuppe": 7649,
      "kitchenai": 7650,
      "sperrt": 7651,
      "stirnbändern": 7652,
      "exp": 7653,
      "windjacke": 7654,
      "sicherheitskleidung": 7655,
      "sicherheitsausrüstung": 7656,
      "khakihosen": 7657,
      "kiefer": 7658,
      "würd": 7659,
      "würstchen": 7660,
      "speedo": 7661,
      "transpar": 7662,
      "sportlerin": 7663,
      "schere": 7664,
      "großküche": 7665,
      "staubwolke": 7666,
      "meeresufer": 7667,
      "gesäumt": 7668,
      "orientalischen": 7669,
      "schwerer": 7670,
      "abenddämmerung": 7671,
      "ringe": 7672,
      "nähern": 7673,
      "elektriker": 7674,
      "tiefes": 7675,
      "softballspielerin": 7676,
      "protestschild": 7677,
      "kniehohen": 7678,
      "knieschonern": 7679,
      "förmlicher": 7680,
      "saris": 7681,
      "vorübergehen": 7682,
      "brünett": 7683,
      "vorbeigehenden": 7684,
      "küchentisch": 7685,
      "küchentheke": 7686,
      "fallschirmspringen": 7687,
      "fallschirmspringer": 7688,
      "geschirrspü": 7689,
      "fröhlicher": 7690,
      "taucherbrille": 7691,
      "rettungsweste": 7692,
      "rettungsschwimmer": 7693,
      "töpfe": 7694,
      "fotograph": 7695,
      "fotographen": 7696,
      "long": 7697,
      "erklärt": 7698,
      "sommerkleid": 7699,
      "ächlich": 7700,
      "deutschen": 7701,
      "abzuwerfen": 7702,
      "abzuwehren": 7703,
      "heiraten": 7704,
      "tattoos": 7705,
      "concert": 7706,
      "angerichtet": 7707,
      "segelboote": 7708,
      "violettes": 7709,
      "gesichert": 7710,
      "gehörschutz": 7711,
      "ausgefallen": 7712,
      "taxis": 7713,
      "absperrband": 7714,
      "absperrungen": 7715,
      "trocknen": 7716,
      "angelruten": 7717,
      "dünner": 7718,
      "knappen": 7719,
      "schippen": 7720,
      "spüle": 7721,
      "pedal": 7722,
      "trockenes": 7723,
      "trockenem": 7724,
      "däm": 7725,
      "gästen": 7726,
      "prunk": 7727,
      "beamten": 7728,
      "letzte": 7729,
      "sprinkler": 7730,
      "schmettern": 7731,
      "cremefarbenen": 7732,
      "passagier": 7733,
      "prallen": 7734,
      "sance": 7735,
      "talent": 7736,
      "neongrünen": 7737,
      "kastenwagen": 7738,
      "motorrollern": 7739,
      "lustigen": 7740,
      "dorfbewohner": 7741,
      "diskutiert": 7742,
      "applau": 7743,
      "kräu": 7744,
      "strickjacke": 7745,
      "packtes": 7746,
      "freiluftmarkt": 7747,
      "ignor": 7748,
      "notenständer": 7749,
      "kriecht": 7750,
      "nasses": 7751,
      "auszuführen": 7752,
      "galopp": 7753,
      "sorgt": 7754,
      "schnappschuss": 7755,
      "aufzuheben": 7756,
      "hundeshow": 7757,
      "tabletts": 7758,
      "bassgitarre": 7759,
      "fontänen": 7760,
      "geburtstags": 7761,
      "altmodischer": 7762,
      "eisenbahnschienen": 7763,
      "kranich": 7764,
      "system": 7765,
      "angehöriger": 7766,
      "gestapelt": 7767,
      "gestalteten": 7768,
      "indianischer": 7769,
      "dogge": 7770,
      "goldener": 7771,
      "kricketspieler": 7772,
      "demonstriert": 7773,
      "obdachlose": 7774,
      "hantel": 7775,
      "handel": 7776,
      "worten": 7777,
      "grinst": 7778,
      "tropischer": 7779,
      "marineblau": 7780,
      "elektronik": 7781,
      "töpferwaren": 7782,
      "töpferscheibe": 7783,
      "winken": 7784,
      "winkel": 7785,
      "einkäufern": 7786,
      "ungepf": 7787,
      "ungefähr": 7788,
      "hallenboden": 7789,
      "irlpool": 7790,
      "schneehügel": 7791,
      "werbetafel": 7792,
      "perücken": 7793,
      "drinks": 7794,
      "funken": 7795,
      "kickboxen": 7796,
      "snacks": 7797,
      "winzigen": 7798,
      "innerhalb": 7799,
      "anweisung": 7800,
      "falsch": 7801,
      "kellnerin": 7802,
      "akrobatische": 7803,
      "seltsames": 7804,
      "gummistie": 7805,
      "strümpfe": 7806,
      "geburtstagskuchen": 7807,
      "krügen": 7808,
      "pinien": 7809,
      "untergrundbahn": 7810,
      "aktivität": 7811,
      "gabelstap": 7812,
      "pelzmantel": 7813,
      "sprühfarbe": 7814,
      "knallgelben": 7815,
      "sportereignis": 7816,
      "techniker": 7817,
      "toilette": 7818,
      "bögen": 7819,
      "geduldig": 7820,
      "belag": 7821,
      "liegestütze": 7822,
      "makeup": 7823,
      "kleidungsstücke": 7824,
      "mobilen": 7825,
      "piercings": 7826,
      "notizbuch": 7827,
      "mexikanischen": 7828,
      "mexikanische": 7829,
      "edlen": 7830,
      "jetski": 7831,
      "antiken": 7832,
      "eigenen": 7833,
      "styl": 7834,
      "gefällten": 7835,
      "truppe": 7836,
      "ausländischen": 7837,
      "ausländische": 7838,
      "abteilung": 7839,
      "skyline": 7840,
      "athlet": 7841,
      "university": 7842,
      "religiöse": 7843,
      "chirurg": 7844,
      "chirurgen": 7845,
      "gottes": 7846,
      "schlanke": 7847,
      "schlanker": 7848,
      "gebückter": 7849,
      "gefrorenen": 7850,
      "unterhaltungs": 7851,
      "maiskolben": 7852,
      "absatzschuhen": 7853,
      "gebirge": 7854,
      "prächtigen": 7855,
      "breitkremp": 7856,
      "volksfest": 7857,
      "cricket": 7858,
      "kimonos": 7859,
      "zession": 7860,
      "schrott": 7861,
      "schärpen": 7862,
      "schickes": 7863,
      "gefliesten": 7864,
      "gefärbten": 7865,
      "aufkleber": 7866,
      "spinnrad": 7867,
      "urlaubs": 7868,
      "strahlend": 7869,
      "strähnen": 7870,
      "strichenen": 7871,
      "skimütze": 7872,
      "militärangehörige": 7873,
      "broschüre": 7874,
      "hispano": 7875,
      "quadraten": 7876,
      "manövriert": 7877,
      "schokoladeneis": 7878,
      "absolventen": 7879,
      "elektrogitarre": 7880,
      "baufälligen": 7881,
      "riss": 7882,
      "gepflegten": 7883,
      "organis": 7884,
      "besonder": 7885,
      "vorbereitung": 7886,
      "spielmannszug": 7887,
      "umhängetasche": 7888,
      "handgelenk": 7889,
      "liebkost": 7890,
      "magazin": 7891,
      "cockpit": 7892,
      "spagat": 7893,
      "doppeldecker": 7894,
      "abenteuer": 7895,
      "wolkigen": 7896,
      "umgedrehten": 7897,
      "limonaden": 7898,
      "entgegengesetzte": 7899,
      "sturzhelm": 7900,
      "flanellhemd": 7901,
      "begleitung": 7902,
      "pressluft": 7903,
      "professioneller": 7904,
      "leopardenmuster": 7905,
      "frühstücks": 7906,
      "rallyeauto": 7907,
      "dirtbike": 7908,
      "drähten": 7909,
      "fundament": 7910,
      "husky": 7911,
      "krokodil": 7912,
      "neigt": 7913,
      "sumor": 7914,
      "utensilien": 7915,
      "whirlpool": 7916,
      "einteiler": 7917,
      "schindeln": 7918,
      "gedanken": 7919,
      "sparty": 7920,
      "besprühten": 7921,
      "schwangere": 7922,
      "seetang": 7923,
      "gehören": 7924,
      "strafzettel": 7925,
      "überwiegend": 7926,
      "albernen": 7927,
      "briefkasten": 7928,
      "kaputten": 7929,
      "langarmhemd": 7930,
      "paintball": 7931,
      "rustikalen": 7932,
      "juwelier": 7933,
      "hauptsächlich": 7934,
      "weihnachtsgeschenke": 7935,
      "choreografie": 7936,
      "prachtvollen": 7937,
      "dirigent": 7938,
      "offiziere": 7939,
      "offiziellen": 7940,
      "gespreizten": 7941,
      "spiderman": 7942,
      "apartment": 7943,
      "frustriert": 7944,
      "gähnt": 7945,
      "idyllischen": 7946,
      "oxford": 7947,
      "oklahoma": 7948,
      "pendler": 7949,
      "vitrine": 7950,
      "yamaha": 7951,
      "inklusive": 7952,
      "erunner": 7953,
      "ananas": 7954,
      "gebäck": 7955,
      "spoliz": 7956,
      "genüsslich": 7957,
      "zweiteiligen": 7958,
      "befreit": 7959,
      "geheimnis": 7960,
      "ausstellungs": 7961,
      "washington": 7962,
      "essstäbchen": 7963,
      "verkäufers": 7964,
      "verstärker": 7965,
      "unterstützung": 7966,
      "renaissance": 7967,
      "puzzle": 7968,
      "bildhauer": 7969,
      "mikroskope": 7970,
      "schlummert": 7971,
      "meerjungfrau": 7972,
      "eiscrem": 7973,
      "unicef": 7974,
      "zwölf": 7975,
      "outfielder": 7976,
      "wäscheleine": 7977,
      "kitchenaid": 7978,
      "gabelstapler": 7979,
      "breitkrempigen": 7980,
      "08": 7981,
      "14": 7982,
      "24": 7983,
      "50": 7984,
      "96": 7985,
      "ader": 7986,
      "aten": 7987,
      "astr": 7988,
      "ado": 7989,
      "ahorn": 7990,
      "bit": 7991,
      "bund": 7992,
      "bten": 7993,
      "bsen": 7994,
      "bunden": 7995,
      "breitet": 7996,
      "bble": 7997,
      "cu": 7998,
      "cle": 7999
    },
    "merges": [
      [
        "i",
        "n"
      ],
      [
        "e",
        "n"
      ],
      [
        "e",
        "in"
      ],
      [
        "e",
        "r"
      ],
      [
        "c",
        "h"
      ],
      [
        "ein",
        "e"
      ],
      [
        "a",
        "u"
      ],
      [
        "a",
        "n"
      ],
      [
        "u",
        "n"
      ],
      [
        "e",
        "i"
      ],
      [
        "s",
        "t"
      ],
      [
        "s",
        "ch"
      ],
      [
        "eine",
        "m"
      ],
      [
        "g",
        "e"
      ],
      [
        "i",
        "t"
      ],
      [
        "i",
        "e"
      ],
      [
        "un",
        "d"
      ],
      [
        "au",
        "f"
      ],
      [
        "a",
        "r"
      ],
      [
        "m",
        "it"
      ],
      [
        "d",
        "er"
      ],
      [
        "m",
        "an"
      ],
      [
        "man",
        "n"
      ],
      [
        "ein",
        "er"
      ],
      [
        "o",
        "n"
      ],
      [
        "r",
        "au"
      ],
      [
        "h",
        "r"
      ],
      [
        "d",
        "e"
      ],
      [
        "l",
        "t"
      ],
      [
        "w",
        "ei"
      ],
      [
        "s",
        "p"
      ],
      [
        "t",
        "e"
      ],
      [
        "a",
        "s"
      ],
      [
        "o",
        "r"
      ],
      [
        "l",
        "l"
      ],
      [
        "f",
        "rau"
      ],
      [
        "t",
        "en"
      ],
      [
        "g",
        "r"
      ],
      [
        "k",
        "l"
      ],
      [
        "c",
        "k"
      ],
      [
        "t",
        "er"
      ],
      [
        "g",
        "en"
      ],
      [
        "i",
        "ch"
      ],
      [
        "r",
        "a"
      ],
      [
        "ein",
        "en"
      ],
      [
        "m",
        "ä"
      ],
      [
        "d",
        "ie"
      ],
      [
        "i",
        "m"
      ],
      [
        "z",
        "u"
      ],
      [
        "z",
        "wei"
      ],
      [
        "e",
        "h"
      ],
      [
        "d",
        "en"
      ],
      [
        "sp",
        "ie"
      ],
      [
        "r",
        "o"
      ],
      [
        "b",
        "l"
      ],
      [
        "b",
        "e"
      ],
      [
        "m",
        "en"
      ],
      [
        "b",
        "er"
      ],
      [
        "b",
        "en"
      ],
      [
        "g",
        "t"
      ],
      [
        "j",
        "un"
      ],
      [
        "a",
        "m"
      ],
      [
        "b",
        "ei"
      ],
      [
        "b",
        "a"
      ],
      [
        "n",
        "e"
      ],
      [
        "ch",
        "en"
      ],
      [
        "h",
        "e"
      ],
      [
        "an",
        "d"
      ],
      [
        "r",
        "ei"
      ],
      [
        "it",
        "z"
      ],
      [
        "st",
        "eh"
      ],
      [
        "v",
        "or"
      ],
      [
        "l",
        "e"
      ],
      [
        "er",
        "s"
      ],
      [
        "s",
        "itz"
      ],
      [
        "sch",
        "w"
      ],
      [
        "s",
        "ich"
      ],
      [
        "i",
        "er"
      ],
      [
        "e",
        "l"
      ],
      [
        "n",
        "er"
      ],
      [
        "f",
        "t"
      ],
      [
        "ß",
        "en"
      ],
      [
        "v",
        "on"
      ],
      [
        "r",
        "e"
      ],
      [
        "n",
        "en"
      ],
      [
        "spie",
        "l"
      ],
      [
        "h",
        "a"
      ],
      [
        "ß",
        "e"
      ],
      [
        "de",
        "m"
      ],
      [
        "jun",
        "ge"
      ],
      [
        "u",
        "r"
      ],
      [
        "ä",
        "hr"
      ],
      [
        "k",
        "in"
      ],
      [
        "sch",
        "en"
      ],
      [
        "f",
        "a"
      ],
      [
        "a",
        "ch"
      ],
      [
        "un",
        "g"
      ],
      [
        "d",
        "chen"
      ],
      [
        "g",
        "er"
      ],
      [
        "mä",
        "dchen"
      ],
      [
        "p",
        "p"
      ],
      [
        "h",
        "und"
      ],
      [
        "h",
        "o"
      ],
      [
        "h",
        "ä"
      ],
      [
        "u",
        "m"
      ],
      [
        "s",
        "e"
      ],
      [
        "ge",
        "h"
      ],
      [
        "s",
        "en"
      ],
      [
        "mä",
        "n"
      ],
      [
        "schw",
        "ar"
      ],
      [
        "ers",
        "on"
      ],
      [
        "p",
        "erson"
      ],
      [
        "l",
        "ä"
      ],
      [
        "schwar",
        "z"
      ],
      [
        "t",
        "r"
      ],
      [
        "l",
        "a"
      ],
      [
        "st",
        "ra"
      ],
      [
        "eine",
        "s"
      ],
      [
        "bl",
        "au"
      ],
      [
        "ba",
        "ll"
      ],
      [
        "män",
        "ner"
      ],
      [
        "t",
        "i"
      ],
      [
        "e",
        "t"
      ],
      [
        "steh",
        "t"
      ],
      [
        "kl",
        "ei"
      ],
      [
        "i",
        "r"
      ],
      [
        "au",
        "s"
      ],
      [
        "pp",
        "e"
      ],
      [
        "fa",
        "hr"
      ],
      [
        "w",
        "as"
      ],
      [
        "o",
        "t"
      ],
      [
        "p",
        "f"
      ],
      [
        "b",
        "o"
      ],
      [
        "h",
        "in"
      ],
      [
        "e",
        "s"
      ],
      [
        "sitz",
        "t"
      ],
      [
        "ü",
        "ber"
      ],
      [
        "an",
        "der"
      ],
      [
        "ge",
        "l"
      ],
      [
        "u",
        "t"
      ],
      [
        "en",
        "d"
      ],
      [
        "v",
        "er"
      ],
      [
        "stra",
        "ße"
      ],
      [
        "sp",
        "r"
      ],
      [
        "gr",
        "u"
      ],
      [
        "gru",
        "ppe"
      ],
      [
        "hä",
        "lt"
      ],
      [
        "he",
        "m"
      ],
      [
        "w",
        "e"
      ],
      [
        "w",
        "ähr"
      ],
      [
        "währ",
        "end"
      ],
      [
        "un",
        "ter"
      ],
      [
        "s",
        "er"
      ],
      [
        "m",
        "e"
      ],
      [
        "men",
        "schen"
      ],
      [
        "d",
        "as"
      ],
      [
        "spie",
        "lt"
      ],
      [
        "i",
        "hr"
      ],
      [
        "i",
        "st"
      ],
      [
        "l",
        "an"
      ],
      [
        "i",
        "k"
      ],
      [
        "hem",
        "d"
      ],
      [
        "sch",
        "au"
      ],
      [
        "k",
        "o"
      ],
      [
        "ra",
        "d"
      ],
      [
        "ck",
        "e"
      ],
      [
        "te",
        "t"
      ],
      [
        "f",
        "ü"
      ],
      [
        "person",
        "en"
      ],
      [
        "z",
        "e"
      ],
      [
        "i",
        "l"
      ],
      [
        "ll",
        "e"
      ],
      [
        "a",
        "l"
      ],
      [
        "en",
        "t"
      ],
      [
        "d",
        "rei"
      ],
      [
        "b",
        "r"
      ],
      [
        "ach",
        "t"
      ],
      [
        "blau",
        "en"
      ],
      [
        "klei",
        "d"
      ],
      [
        "kin",
        "d"
      ],
      [
        "u",
        "ft"
      ],
      [
        "was",
        "ser"
      ],
      [
        "steh",
        "en"
      ],
      [
        "wei",
        "ßen"
      ],
      [
        "kin",
        "der"
      ],
      [
        "gr",
        "o"
      ],
      [
        "ne",
        "ben"
      ],
      [
        "r",
        "en"
      ],
      [
        "in",
        "gt"
      ],
      [
        "b",
        "rau"
      ],
      [
        "e",
        "m"
      ],
      [
        "ei",
        "l"
      ],
      [
        "tr",
        "ä"
      ],
      [
        "f",
        "ar"
      ],
      [
        "ur",
        "ch"
      ],
      [
        "sitz",
        "en"
      ],
      [
        "hin",
        "ter"
      ],
      [
        "d",
        "urch"
      ],
      [
        "frau",
        "en"
      ],
      [
        "ar",
        "bei"
      ],
      [
        "ro",
        "ten"
      ],
      [
        "k",
        "a"
      ],
      [
        "le",
        "u"
      ],
      [
        "b",
        "ä"
      ],
      [
        "f",
        "en"
      ],
      [
        "spiel",
        "en"
      ],
      [
        "f",
        "el"
      ],
      [
        "h",
        "er"
      ],
      [
        "gr",
        "ü"
      ],
      [
        "lt",
        "er"
      ],
      [
        "geh",
        "t"
      ],
      [
        "h",
        "and"
      ],
      [
        "l",
        "ie"
      ],
      [
        "st",
        "a"
      ],
      [
        "far",
        "ben"
      ],
      [
        "f",
        "ähr"
      ],
      [
        "fähr",
        "t"
      ],
      [
        "s",
        "a"
      ],
      [
        "ti",
        "sch"
      ],
      [
        "i",
        "s"
      ],
      [
        "trä",
        "gt"
      ],
      [
        "j",
        "a"
      ],
      [
        "st",
        "r"
      ],
      [
        "f",
        "e"
      ],
      [
        "t",
        "eil"
      ],
      [
        "ier",
        "t"
      ],
      [
        "o",
        "l"
      ],
      [
        "o",
        "ber"
      ],
      [
        "s",
        "ie"
      ],
      [
        "m",
        "a"
      ],
      [
        "lan",
        "g"
      ],
      [
        "l",
        "ich"
      ],
      [
        "ck",
        "en"
      ],
      [
        "ar",
        "k"
      ],
      [
        "s",
        "h"
      ],
      [
        "kl",
        "eines"
      ],
      [
        "m",
        "acht"
      ],
      [
        "t",
        "o"
      ],
      [
        "im",
        "m"
      ],
      [
        "bä",
        "u"
      ],
      [
        "h",
        "n"
      ],
      [
        "kleid",
        "ung"
      ],
      [
        "z",
        "ei"
      ],
      [
        "spr",
        "ingt"
      ],
      [
        "t",
        "a"
      ],
      [
        "an",
        "ge"
      ],
      [
        "b",
        "ü"
      ],
      [
        "schwarz",
        "en"
      ],
      [
        "ent",
        "lang"
      ],
      [
        "kl",
        "einer"
      ],
      [
        "ck",
        "t"
      ],
      [
        "i",
        "sch"
      ],
      [
        "t",
        "z"
      ],
      [
        "d",
        "a"
      ],
      [
        "u",
        "s"
      ],
      [
        "de",
        "s"
      ],
      [
        "we",
        "g"
      ],
      [
        "f",
        "er"
      ],
      [
        "lt",
        "en"
      ],
      [
        "geh",
        "en"
      ],
      [
        "p",
        "a"
      ],
      [
        "spiel",
        "er"
      ],
      [
        "ch",
        "e"
      ],
      [
        "ch",
        "t"
      ],
      [
        "t",
        "ra"
      ],
      [
        "hr",
        "er"
      ],
      [
        "w",
        "a"
      ],
      [
        "ha",
        "ar"
      ],
      [
        "leu",
        "te"
      ],
      [
        "wei",
        "ß"
      ],
      [
        "i",
        "gen"
      ],
      [
        "b",
        "au"
      ],
      [
        "me",
        "hrer"
      ],
      [
        "f",
        "u"
      ],
      [
        "f",
        "rei"
      ],
      [
        "u",
        "g"
      ],
      [
        "in",
        "d"
      ],
      [
        "j",
        "e"
      ],
      [
        "fu",
        "ß"
      ],
      [
        "ä",
        "lter"
      ],
      [
        "w",
        "ir"
      ],
      [
        "n",
        "t"
      ],
      [
        "klei",
        "de"
      ],
      [
        "ober",
        "teil"
      ],
      [
        "fahr",
        "rad"
      ],
      [
        "sch",
        "ne"
      ],
      [
        "k",
        "am"
      ],
      [
        "ge",
        "bäu"
      ],
      [
        "st",
        "ü"
      ],
      [
        "z",
        "en"
      ],
      [
        "st",
        "e"
      ],
      [
        "u",
        "h"
      ],
      [
        "br",
        "i"
      ],
      [
        "et",
        "was"
      ],
      [
        "mehrer",
        "e"
      ],
      [
        "s",
        "einem"
      ],
      [
        "i",
        "ge"
      ],
      [
        "ir",
        "t"
      ],
      [
        "gro",
        "ßen"
      ],
      [
        "p",
        "u"
      ],
      [
        "sh",
        "irt"
      ],
      [
        "grü",
        "nen"
      ],
      [
        "ja",
        "cke"
      ],
      [
        "l",
        "uft"
      ],
      [
        "h",
        "t"
      ],
      [
        "p",
        "o"
      ],
      [
        "gr",
        "und"
      ],
      [
        "v",
        "o"
      ],
      [
        "ier",
        "en"
      ],
      [
        "jun",
        "gen"
      ],
      [
        "f",
        "l"
      ],
      [
        "v",
        "ers"
      ],
      [
        "schau",
        "t"
      ],
      [
        "bri",
        "lle"
      ],
      [
        "schne",
        "e"
      ],
      [
        "st",
        "er"
      ],
      [
        "ge",
        "kleide"
      ],
      [
        "or",
        "t"
      ],
      [
        "ot",
        "o"
      ],
      [
        "zu",
        "g"
      ],
      [
        "s",
        "on"
      ],
      [
        "s",
        "am"
      ],
      [
        "ho",
        "ch"
      ],
      [
        "bo",
        "ar"
      ],
      [
        "str",
        "and"
      ],
      [
        "b",
        "as"
      ],
      [
        "ge",
        "sch"
      ],
      [
        "n",
        "ach"
      ],
      [
        "f",
        "oto"
      ],
      [
        "lä",
        "uft"
      ],
      [
        "s",
        "eh"
      ],
      [
        "n",
        "ä"
      ],
      [
        "te",
        "l"
      ],
      [
        "auf",
        "en"
      ],
      [
        "in",
        "k"
      ],
      [
        "il",
        "d"
      ],
      [
        "farben",
        "en"
      ],
      [
        "ich",
        "t"
      ],
      [
        "ha",
        "t"
      ],
      [
        "el",
        "n"
      ],
      [
        "a",
        "b"
      ],
      [
        "s",
        "ind"
      ],
      [
        "h",
        "ut"
      ],
      [
        "p",
        "ark"
      ],
      [
        "fü",
        "r"
      ],
      [
        "men",
        "ge"
      ],
      [
        "i",
        "g"
      ],
      [
        "hinter",
        "grund"
      ],
      [
        "seh",
        "en"
      ],
      [
        "w",
        "er"
      ],
      [
        "hä",
        "n"
      ],
      [
        "ko",
        "pf"
      ],
      [
        "wei",
        "ße"
      ],
      [
        "frei",
        "en"
      ],
      [
        "i",
        "a"
      ],
      [
        "bl",
        "i"
      ],
      [
        "k",
        "e"
      ],
      [
        "b",
        "t"
      ],
      [
        "ha",
        "lten"
      ],
      [
        "a",
        "f"
      ],
      [
        "gebäu",
        "de"
      ],
      [
        "p",
        "la"
      ],
      [
        "de",
        "t"
      ],
      [
        "ll",
        "en"
      ],
      [
        "ander",
        "en"
      ],
      [
        "fahr",
        "er"
      ],
      [
        "i",
        "schen"
      ],
      [
        "r",
        "ü"
      ],
      [
        "ä",
        "n"
      ],
      [
        "jun",
        "ger"
      ],
      [
        "v",
        "ier"
      ],
      [
        "fel",
        "d"
      ],
      [
        "gel",
        "ben"
      ],
      [
        "ö",
        "r"
      ],
      [
        "vor",
        "bei"
      ],
      [
        "ze",
        "ug"
      ],
      [
        "k",
        "ü"
      ],
      [
        "w",
        "ar"
      ],
      [
        "an",
        "k"
      ],
      [
        "h",
        "ü"
      ],
      [
        "gr",
        "as"
      ],
      [
        "w",
        "ie"
      ],
      [
        "n",
        "a"
      ],
      [
        "as",
        "ia"
      ],
      [
        "ber",
        "ei"
      ],
      [
        "or",
        "ange"
      ],
      [
        "es",
        "sen"
      ],
      [
        "er",
        "a"
      ],
      [
        "m",
        "ü"
      ],
      [
        "f",
        "on"
      ],
      [
        "g",
        "l"
      ],
      [
        "st",
        "ei"
      ],
      [
        "ge",
        "gen"
      ],
      [
        "g",
        "it"
      ],
      [
        "te",
        "m"
      ],
      [
        "ander",
        "e"
      ],
      [
        "boar",
        "d"
      ],
      [
        "sch",
        "e"
      ],
      [
        "bo",
        "den"
      ],
      [
        "sta",
        "d"
      ],
      [
        "sch",
        "n"
      ],
      [
        "i",
        "h"
      ],
      [
        "s",
        "ka"
      ],
      [
        "schwarz",
        "er"
      ],
      [
        "kam",
        "era"
      ],
      [
        "git",
        "ar"
      ],
      [
        "kl",
        "eine"
      ],
      [
        "h",
        "ne"
      ],
      [
        "t",
        "t"
      ],
      [
        "hund",
        "e"
      ],
      [
        "f",
        "in"
      ],
      [
        "w",
        "and"
      ],
      [
        "he",
        "l"
      ],
      [
        "nä",
        "he"
      ],
      [
        "sch",
        "ie"
      ],
      [
        "wir",
        "d"
      ],
      [
        "bei",
        "m"
      ],
      [
        "fuß",
        "ball"
      ],
      [
        "ge",
        "st"
      ],
      [
        "l",
        "er"
      ],
      [
        "bl",
        "on"
      ],
      [
        "kl",
        "einen"
      ],
      [
        "pa",
        "ar"
      ],
      [
        "weiß",
        "er"
      ],
      [
        "u",
        "er"
      ],
      [
        "ein",
        "ander"
      ],
      [
        "menschen",
        "menge"
      ],
      [
        "wa",
        "gen"
      ],
      [
        "au",
        "to"
      ],
      [
        "stad",
        "t"
      ],
      [
        "ro",
        "sa"
      ],
      [
        "ut",
        "z"
      ],
      [
        "z",
        "ie"
      ],
      [
[...]
